[PAD]	0
[UNK]	0
[START]	0
[END]	0
[SEP]	0
[CLS]	0
<0x00>	0
<0x01>	0
<0x02>	0
<0x03>	0
<0x04>	0
<0x05>	0
<0x06>	0
<0x07>	0
<0x08>	0
<0x09>	0
<0x0A>	0
<0x0B>	0
<0x0C>	0
<0x0D>	0
<0x0E>	0
<0x0F>	0
<0x10>	0
<0x11>	0
<0x12>	0
<0x13>	0
<0x14>	0
<0x15>	0
<0x16>	0
<0x17>	0
<0x18>	0
<0x19>	0
<0x1A>	0
<0x1B>	0
<0x1C>	0
<0x1D>	0
<0x1E>	0
<0x1F>	0
<0x20>	0
<0x21>	0
<0x22>	0
<0x23>	0
<0x24>	0
<0x25>	0
<0x26>	0
<0x27>	0
<0x28>	0
<0x29>	0
<0x2A>	0
<0x2B>	0
<0x2C>	0
<0x2D>	0
<0x2E>	0
<0x2F>	0
<0x30>	0
<0x31>	0
<0x32>	0
<0x33>	0
<0x34>	0
<0x35>	0
<0x36>	0
<0x37>	0
<0x38>	0
<0x39>	0
<0x3A>	0
<0x3B>	0
<0x3C>	0
<0x3D>	0
<0x3E>	0
<0x3F>	0
<0x40>	0
<0x41>	0
<0x42>	0
<0x43>	0
<0x44>	0
<0x45>	0
<0x46>	0
<0x47>	0
<0x48>	0
<0x49>	0
<0x4A>	0
<0x4B>	0
<0x4C>	0
<0x4D>	0
<0x4E>	0
<0x4F>	0
<0x50>	0
<0x51>	0
<0x52>	0
<0x53>	0
<0x54>	0
<0x55>	0
<0x56>	0
<0x57>	0
<0x58>	0
<0x59>	0
<0x5A>	0
<0x5B>	0
<0x5C>	0
<0x5D>	0
<0x5E>	0
<0x5F>	0
<0x60>	0
<0x61>	0
<0x62>	0
<0x63>	0
<0x64>	0
<0x65>	0
<0x66>	0
<0x67>	0
<0x68>	0
<0x69>	0
<0x6A>	0
<0x6B>	0
<0x6C>	0
<0x6D>	0
<0x6E>	0
<0x6F>	0
<0x70>	0
<0x71>	0
<0x72>	0
<0x73>	0
<0x74>	0
<0x75>	0
<0x76>	0
<0x77>	0
<0x78>	0
<0x79>	0
<0x7A>	0
<0x7B>	0
<0x7C>	0
<0x7D>	0
<0x7E>	0
<0x7F>	0
<0x80>	0
<0x81>	0
<0x82>	0
<0x83>	0
<0x84>	0
<0x85>	0
<0x86>	0
<0x87>	0
<0x88>	0
<0x89>	0
<0x8A>	0
<0x8B>	0
<0x8C>	0
<0x8D>	0
<0x8E>	0
<0x8F>	0
<0x90>	0
<0x91>	0
<0x92>	0
<0x93>	0
<0x94>	0
<0x95>	0
<0x96>	0
<0x97>	0
<0x98>	0
<0x99>	0
<0x9A>	0
<0x9B>	0
<0x9C>	0
<0x9D>	0
<0x9E>	0
<0x9F>	0
<0xA0>	0
<0xA1>	0
<0xA2>	0
<0xA3>	0
<0xA4>	0
<0xA5>	0
<0xA6>	0
<0xA7>	0
<0xA8>	0
<0xA9>	0
<0xAA>	0
<0xAB>	0
<0xAC>	0
<0xAD>	0
<0xAE>	0
<0xAF>	0
<0xB0>	0
<0xB1>	0
<0xB2>	0
<0xB3>	0
<0xB4>	0
<0xB5>	0
<0xB6>	0
<0xB7>	0
<0xB8>	0
<0xB9>	0
<0xBA>	0
<0xBB>	0
<0xBC>	0
<0xBD>	0
<0xBE>	0
<0xBF>	0
<0xC0>	0
<0xC1>	0
<0xC2>	0
<0xC3>	0
<0xC4>	0
<0xC5>	0
<0xC6>	0
<0xC7>	0
<0xC8>	0
<0xC9>	0
<0xCA>	0
<0xCB>	0
<0xCC>	0
<0xCD>	0
<0xCE>	0
<0xCF>	0
<0xD0>	0
<0xD1>	0
<0xD2>	0
<0xD3>	0
<0xD4>	0
<0xD5>	0
<0xD6>	0
<0xD7>	0
<0xD8>	0
<0xD9>	0
<0xDA>	0
<0xDB>	0
<0xDC>	0
<0xDD>	0
<0xDE>	0
<0xDF>	0
<0xE0>	0
<0xE1>	0
<0xE2>	0
<0xE3>	0
<0xE4>	0
<0xE5>	0
<0xE6>	0
<0xE7>	0
<0xE8>	0
<0xE9>	0
<0xEA>	0
<0xEB>	0
<0xEC>	0
<0xED>	0
<0xEE>	0
<0xEF>	0
<0xF0>	0
<0xF1>	0
<0xF2>	0
<0xF3>	0
<0xF4>	0
<0xF5>	0
<0xF6>	0
<0xF7>	0
<0xF8>	0
<0xF9>	0
<0xFA>	0
<0xFB>	0
<0xFC>	0
<0xFD>	0
<0xFE>	0
<0xFF>	0
.	-3.28451
,	-3.37999
▁the	-3.49292
▁	-3.74789
s	-3.90072
▁and	-3.98752
▁to	-3.99066
▁of	-4.10042
▁a	-4.20088
▁in	-4.4915
0	-4.49237
1	-4.56607
2	-4.77606
-	-4.8454
▁is	-4.84717
▁for	-4.93444
▁I	-4.9816
▁that	-5.02858
’	-5.17312
:	-5.19143
▁you	-5.21117
▁with	-5.26353
▁on	-5.27901
▁it	-5.34895
'	-5.37534
▁-	-5.42013
3	-5.46626
5	-5.52033
▁The	-5.53681
▁are	-5.56361
▁be	-5.57321
▁(	-5.57808
4	-5.63235
9	-5.64584
t	-5.65182
▁as	-5.70755
▁was	-5.75877
▁have	-5.77819
)	-5.78463
▁at	-5.78603
▁this	-5.79089
8	-5.85993
6	-5.86146
▁your	-5.8632
▁from	-5.88376
▁or	-5.8845
▁by	-5.90463
7	-5.91713
▁can	-6.02963
▁not	-6.04961
▁will	-6.05928
▁an	-6.10272
ing	-6.19497
▁we	-6.21599
!	-6.24437
▁but	-6.29251
▁has	-6.30509
?	-6.3149
▁all	-6.31776
▁“	-6.34702
d	-6.38101
ed	-6.38266
▁my	-6.39024
▁they	-6.39069
▁more	-6.40001
▁one	-6.45868
/	-6.46087
▁their	-6.46531
▁about	-6.48624
▁he	-6.51821
▁out	-6.54946
▁so	-6.57467
▁his	-6.57881
▁A	-6.58936
▁up	-6.59547
m	-6.59795
▁our	-6.6292
▁"	-6.63309
▁It	-6.65373
▁which	-6.68605
▁time	-6.69384
▁like	-6.71932
▁who	-6.74803
▁do	-6.7527
▁also	-6.77223
▁what	-6.82074
▁been	-6.83585
▁if	-6.84056
▁when	-6.84462
▁had	-6.84677
▁would	-6.84826
▁In	-6.84924
▁This	-6.85947
re	-6.86025
▁me	-6.86766
▁were	-6.8705
▁just	-6.88006
▁there	-6.89342
;	-6.90432
▁some	-6.92389
▁other	-6.92881
▁get	-6.93057
▁her	-6.93186
▁We	-6.9759
▁them	-6.98008
▁–	-6.99859
er	-7.00805
▁new	-7.01997
y	-7.04216
▁into	-7.04877
▁people	-7.05401
ly	-7.05639
▁than	-7.07766
a	-7.09619
”	-7.10331
e	-7.1042
▁said	-7.10668
...	-7.10698
▁no	-7.11994
▁over	-7.12249
▁how	-7.12287
"	-7.14028
▁make	-7.15833
▁any	-7.17567
▁You	-7.1846
▁first	-7.18577
▁only	-7.19154
▁$	-7.21987
S	-7.23001
▁work	-7.27117
▁very	-7.28457
▁well	-7.28657
▁its	-7.29165
▁these	-7.30356
▁she	-7.30437
▁most	-7.31255
▁two	-7.31666
▁know	-7.31824
▁If	-7.32042
ve	-7.32744
▁may	-7.33095
▁good	-7.34567
▁use	-7.35237
▁way	-7.35562
▁us	-7.35982
▁He	-7.37129
▁&	-7.37585
▁see	-7.37689
▁need	-7.38136
I	-7.38155
▁back	-7.39848
▁now	-7.40577
▁years	-7.4095
▁could	-7.4162
▁many	-7.42201
▁after	-7.42693
▁year	-7.43104
▁much	-7.43997
▁then	-7.44748
▁because	-7.45042
in	-7.45537
▁through	-7.4673
).	-7.48393
▁don	-7.49253
ll	-7.49715
▁And	-7.49923
▁even	-7.50262
▁should	-7.50518
▁where	-7.51888
th	-7.52558
n	-7.52583
▁want	-7.52965
▁think	-7.55117
▁here	-7.55312
▁day	-7.55411
▁go	-7.56317
▁help	-7.5712
▁best	-7.59075
▁take	-7.59169
▁great	-7.61191
▁For	-7.6134
▁being	-7.61495
▁But	-7.61893
▁really	-7.61933
▁him	-7.62789
.”	-7.62951
o	-7.63013
▁those	-7.63175
▁such	-7.63347
r	-7.63632
▁right	-7.64095
▁made	-7.64227
]	-7.64923
%	-7.66109
▁before	-7.66231
i	-7.66955
▁home	-7.67879
A	-7.71524
▁S	-7.71642
es	-7.72469
▁love	-7.72474
▁find	-7.72613
▁going	-7.7379
▁last	-7.74308
▁off	-7.74792
▁life	-7.75272
▁used	-7.75718
▁down	-7.76688
▁So	-7.77281
al	-7.7754
▁am	-7.77584
▁still	-7.80115
▁while	-7.80456
▁There	-7.80516
▁too	-7.81212
▁information	-7.81566
▁To	-7.81979
▁They	-7.82568
▁[	-7.83229
▁own	-7.83248
▁around	-7.83332
▁|	-7.83562
▁New	-7.84098
▁world	-7.84151
▁each	-7.84467
),	-7.84783
▁look	-7.85149
▁What	-7.85633
▁long	-7.86376
▁As	-7.86579
▁same	-7.87214
▁did	-7.87478
or	-7.8841
▁both	-7.92012
▁part	-7.92173
▁B	-7.92599
▁high	-7.92638
▁free	-7.92692
▁every	-7.9411
▁different	-7.94115
▁business	-7.94332
▁little	-7.95016
▁C	-7.95167
▁i	-7.95429
▁place	-7.95494
▁between	-7.9556
▁things	-7.95598
com	-7.95995
▁few	-7.96478
The	-7.97268
D	-7.97431
C	-7.98342
▁three	-7.99151
▁say	-8.01453
▁E	-8.01637
▁something	-8.02593
▁better	-8.026
ers	-8.0273
▁come	-8.03263
▁lot	-8.03287
▁under	-8.03335
▁using	-8.03503
g	-8.03527
▁That	-8.03626
▁always	-8.03812
."	-8.04471
,”	-8.04759
▁does	-8.06364
▁set	-8.07913
▁She	-8.08056
▁game	-8.08093
▁No	-8.08187
▁‘	-8.08263
▁When	-8.08667
▁M	-8.08757
▁next	-8.08787
▁during	-8.09829
▁team	-8.09844
▁another	-8.11029
▁got	-8.11428
▁online	-8.12018
▁never	-8.12591
▁P	-8.13028
▁end	-8.13085
▁without	-8.13096
p	-8.13105
▁system	-8.13234
▁D	-8.13603
▁might	-8.13897
▁must	-8.13937
▁family	-8.14001
(	-8.14076
▁available	-8.14132
c	-8.1419
▁found	-8.14841
▁All	-8.15859
▁sure	-8.15902
▁company	-8.1609
on	-8.16233
▁since	-8.16438
▁number	-8.16534
▁experience	-8.16694
▁U	-8.1731
▁T	-8.1735
▁service	-8.18226
▁My	-8.19241
▁—	-8.19458
▁top	-8.2037
▁water	-8.20442
k	-8.20955
▁week	-8.21153
▁support	-8.21171
▁data	-8.22433
▁give	-8.23098
T	-8.23597
▁full	-8.23685
▁including	-8.24392
▁again	-8.2463
B	-8.24772
▁days	-8.25358
▁keep	-8.25434
▁post	-8.25652
to	-8.258
▁show	-8.26148
▁feel	-8.26388
▁put	-8.26668
▁re	-8.26956
▁able	-8.27378
▁school	-8.2744
x	-8.28203
▁book	-8.28821
man	-8.2905
▁small	-8.29188
▁important	-8.29203
▁How	-8.29206
▁thing	-8.29302
▁...	-8.29674
▁start	-8.30513
▁per	-8.30711
▁against	-8.30945
▁today	-8.31425
▁On	-8.32238
▁R	-8.32354
▁With	-8.3278
▁site	-8.32829
▁looking	-8.32849
b	-8.33351
▁why	-8.34069
able	-8.34155
▁away	-8.34172
▁read	-8.3425
l	-8.34331
▁play	-8.34952
en	-8.34993
▁case	-8.35098
▁area	-8.35106
and	-8.35203
▁K	-8.35694
▁point	-8.35695
▁F	-8.35792
▁state	-8.36344
▁One	-8.36563
▁order	-8.36664
▁making	-8.36836
▁provide	-8.36838
▁G	-8.3727
▁says	-8.3738
▁working	-8.37644
▁money	-8.37711
▁change	-8.37894
▁second	-8.38167
▁de	-8.38412
▁#	-8.39103
▁within	-8.39392
▁big	-8.39599
▁local	-8.40059
▁process	-8.40238
▁person	-8.40287
▁services	-8.40375
▁care	-8.40455
▁children	-8.40705
▁course	-8.40763
▁p	-8.40864
▁J	-8.41052
▁didn	-8.41398
▁old	-8.41948
_	-8.42167
▁L	-8.42775
▁until	-8.43728
▁having	-8.43777
▁students	-8.4396
—	-8.43965
the	-8.44118
▁man	-8.44245
▁real	-8.44678
P	-8.45066
▁un	-8.45675
▁name	-8.46394
M	-8.467
▁health	-8.47339
▁group	-8.47559
,"	-8.47625
▁food	-8.47715
▁public	-8.47908
▁University	-8.48208
▁hard	-8.48756
▁left	-8.48814
▁done	-8.4882
▁N	-8.48989
▁design	-8.49213
▁At	-8.49229
▁enough	-8.49235
an	-8.49265
▁Our	-8.49467
▁together	-8.49565
▁side	-8.49581
▁market	-8.49728
▁ever	-8.50346
▁Your	-8.50597
▁God	-8.50931
▁open	-8.50979
▁actually	-8.51094
▁O	-8.51219
▁getting	-8.51439
▁car	-8.51777
h	-8.51939
▁room	-8.5214
▁though	-8.52189
▁These	-8.52216
▁often	-8.52302
▁night	-8.52474
▁Re	-8.52748
▁already	-8.53026
▁less	-8.53552
▁women	-8.53599
▁power	-8.53624
▁try	-8.54508
▁large	-8.54642
▁website	-8.54654
▁H	-8.54672
E	-8.54681
▁/	-8.54812
▁doing	-8.54873
▁doesn	-8.55585
▁far	-8.55612
G	-8.55628
▁program	-8.55745
▁following	-8.55998
▁season	-8.56087
▁run	-8.56397
▁let	-8.56547
▁community	-8.56758
f	-8.56762
▁easy	-8.56966
▁house	-8.57058
▁ago	-8.57242
▁become	-8.57278
▁job	-8.57423
▁story	-8.57576
u	-8.58266
▁After	-8.58449
up	-8.58729
K	-8.58822
▁May	-8.58856
▁list	-8.58907
▁bit	-8.58922
F	-8.58956
▁thought	-8.59106
▁fact	-8.59213
▁possible	-8.59276
▁Do	-8.59369
▁call	-8.59848
▁live	-8.59902
▁quality	-8.59919
▁times	-8.59971
▁include	-8.60073
▁least	-8.60208
▁By	-8.60359
▁project	-8.60645
▁page	-8.60898
▁line	-8.60999
▁four	-8.61216
▁video	-8.61312
▁However	-8.61586
▁hand	-8.61763
▁needs	-8.62015
▁based	-8.62184
▁makes	-8.62334
▁along	-8.6237
▁body	-8.62401
▁level	-8.62434
z	-8.62556
▁products	-8.6267
▁offer	-8.62976
▁research	-8.63051
▁came	-8.63101
us	-8.63124
▁means	-8.63204
▁several	-8.6351
W	-8.63625
R	-8.63674
▁called	-8.63707
▁'	-8.64638
▁American	-8.65176
▁past	-8.65239
▁country	-8.6554
▁price	-8.65621
▁yet	-8.65644
▁St	-8.66451
▁once	-8.66482
▁product	-8.66919
▁An	-8.66922
▁social	-8.6693
▁create	-8.67496
▁went	-8.67755
▁won	-8.6787
▁kind	-8.68098
▁started	-8.68322
▁comes	-8.68342
▁took	-8.68772
▁Now	-8.69137
▁months	-8.69219
▁W	-8.69233
▁problem	-8.69355
▁government	-8.6945
L	-8.69872
▁someone	-8.70032
▁head	-8.70034
▁city	-8.70502
▁future	-8.70578
▁fun	-8.70629
▁plan	-8.70699
ic	-8.70729
▁e	-8.7077
▁million	-8.70841
ness	-8.70902
▁across	-8.71221
▁More	-8.7123
▁example	-8.71251
▁light	-8.71662
▁non	-8.71824
▁others	-8.71847
▁hours	-8.72117
▁short	-8.72434
▁control	-8.74061
▁cost	-8.74146
▁>	-8.74183
▁V	-8.74291
▁event	-8.74331
▁Here	-8.74914
▁development	-8.75115
▁believe	-8.75426
▁buy	-8.7554
▁single	-8.75591
We	-8.75649
▁below	-8.76078
▁*	-8.76146
▁idea	-8.76527
▁check	-8.76544
▁everything	-8.76596
it	-8.76832
▁access	-8.77118
▁music	-8.77236
▁US	-8.77307
▁members	-8.77362
ation	-8.77409
▁form	-8.77446
▁pay	-8.7751
▁•	-8.77812
am	-8.77848
▁blog	-8.77851
▁early	-8.77853
▁anything	-8.78237
▁share	-8.78261
▁low	-8.78418
▁seen	-8.78465
▁Dr	-8.78527
ity	-8.78574
▁City	-8.78777
▁personal	-8.79052
▁friends	-8.7908
▁space	-8.79255
▁given	-8.79275
▁told	-8.79401
▁whole	-8.79432
▁State	-8.79454
▁mind	-8.79563
▁add	-8.80241
▁United	-8.8036
▁later	-8.80437
▁minutes	-8.81019
▁type	-8.81653
▁men	-8.81672
–	-8.81716
H	-8.82114
▁Thanks	-8.82206
▁special	-8.82418
▁please	-8.8245
▁five	-8.82752
▁face	-8.82756
le	-8.82996
▁hope	-8.83002
▁current	-8.83263
>	-8.83456
V	-8.83541
▁learn	-8.83565
ist	-8.83634
▁taking	-8.83686
▁due	-8.83765
▁study	-8.83786
▁month	-8.83828
▁above	-8.83837
▁Not	-8.8425
▁tell	-8.84367
▁games	-8.84528
N	-8.84646
▁John	-8.8474
▁pretty	-8.85026
▁perfect	-8.85706
▁everyone	-8.86191
▁value	-8.86544
▁understand	-8.86671
ton	-8.86845
▁results	-8.86876
▁quite	-8.87003
▁trying	-8.87161
▁contact	-8.87408
▁white	-8.87423
st	-8.87497
▁media	-8.87741
▁From	-8.87746
▁visit	-8.87918
▁whether	-8.88111
▁--	-8.88239
v	-8.88272
▁industry	-8.88304
▁issues	-8.88455
▁writing	-8.88466
▁x	-8.88752
▁known	-8.8886
▁front	-8.88903
▁black	-8.8892
▁either	-8.88966
▁close	-8.89353
▁question	-8.89694
▁probably	-8.89851
▁size	-8.90114
▁Some	-8.90122
▁view	-8.90144
▁history	-8.90249
▁series	-8.90351
▁report	-8.90445
▁School	-8.90465
▁While	-8.90596
▁half	-8.90719
▁beautiful	-8.91004
▁range	-8.91117
▁building	-8.91296
▁almost	-8.91667
▁companies	-8.91688
co	-8.91694
▁review	-8.9202
▁law	-8.9232
▁move	-8.92421
J	-8.92451
▁wanted	-8.92471
▁National	-8.92589
▁heart	-8.92618
▁bad	-8.9289
▁York	-8.93144
w	-8.93213
▁issue	-8.93402
▁Please	-8.93499
▁content	-8.93532
▁article	-8.93773
is	-8.93781
▁questions	-8.94001
▁coming	-8.94035
▁air	-8.94061
ie	-8.94104
▁Center	-8.94511
▁especially	-8.94514
▁March	-8.94566
▁major	-8.94627
▁child	-8.94661
▁class	-8.95172
▁pre	-8.9549
br	-8.95527
▁simple	-8.9557
▁young	-8.95751
▁+	-8.95838
▁Free	-8.96086
▁Mr	-8.96383
▁June	-8.96471
▁added	-8.96728
as	-8.96831
▁mean	-8.96856
▁key	-8.96895
▁email	-8.96918
▁win	-8.96963
▁isn	-8.97528
▁reading	-8.976
▁kids	-8.97658
▁Of	-8.97712
▁co	-8.97767
▁Be	-8.9783
▁needed	-8.9794
▁human	-8.97996
▁reason	-8.98048
▁training	-8.98195
▁features	-8.98234
▁bring	-8.98308
na	-8.98567
▁main	-8.9862
▁complete	-8.98674
▁office	-8.98676
▁further	-8.98698
ion	-8.9899
ar	-8.99167
▁matter	-8.99276
▁simply	-8.99482
▁result	-8.99519
▁taken	-8.9952
▁nothing	-8.99665
ment	-8.99718
▁@	-8.99791
▁likely	-8.99798
▁however	-8.99822
▁rather	-8.99839
▁age	-9.00008
▁living	-9.00071
▁Co	-9.00122
▁management	-9.00165
▁points	-9.00357
▁nice	-9.00387
It	-9.00391
▁technology	-9.00405
▁X	-9.00486
▁deal	-9.00724
▁Can	-9.0088
@	-9.00977
▁World	-9.0118
▁various	-9.01229
▁forward	-9.01239
▁self	-9.01303
▁among	-9.01377
O	-9.01425
▁staff	-9.01564
▁performance	-9.01776
▁His	-9.01954
▁energy	-9.02059
▁percent	-9.02257
▁April	-9.02273
▁July	-9.02302
▁De	-9.02322
▁offers	-9.02331
▁lead	-9.02368
▁web	-9.02377
▁South	-9.02434
▁enjoy	-9.0259
▁stay	-9.02817
▁addition	-9.02968
▁near	-9.03012
▁words	-9.03096
+	-9.03109
▁style	-9.03138
▁phone	-9.03223
▁true	-9.03237
▁turn	-9.0325
▁news	-9.03444
▁continue	-9.03696
▁amount	-9.03722
▁seems	-9.03867
▁meet	-9.03889
▁account	-9.03895
▁stop	-9.03936
▁present	-9.04093
▁else	-9.04122
▁oil	-9.04145
▁required	-9.04322
less	-9.04406
▁yourself	-9.04494
▁film	-9.04587
▁asked	-9.04622
▁soon	-9.04714
▁couple	-9.04791
▁clear	-9.04954
X	-9.04986
time	-9.05028
▁Day	-9.05411
▁Just	-9.05747
at	-9.06129
▁happy	-9.06158
▁final	-9.06236
▁date	-9.06272
▁behind	-9.06382
▁search	-9.06531
▁works	-9.06682
▁customers	-9.06795
▁etc	-9.06802
el	-9.06836
▁test	-9.06965
▁card	-9.07022
▁problems	-9.07047
▁anyone	-9.07061
▁County	-9.0708
▁property	-9.07172
▁areas	-9.07243
▁field	-9.07252
ism	-9.07289
▁third	-9.07378
rs	-9.07525
▁looks	-9.07553
year	-9.07563
▁art	-9.07599
▁ask	-9.07964
▁talk	-9.08031
de	-9.0824
ry	-9.08248
▁details	-9.08282
▁North	-9.08851
▁action	-9.0908
▁professional	-9.09222
▁party	-9.09225
▁strong	-9.0957
▁States	-9.10073
▁Or	-9.10103
▁role	-9.10123
▁rest	-9.1025
j	-9.10492
▁House	-9.10767
te	-9.10785
son	-9.10803
▁West	-9.1116
▁increase	-9.11196
▁weeks	-9.11446
▁leave	-9.11494
ia	-9.11517
▁running	-9.11749
▁model	-9.1182
▁version	-9.11874
▁paper	-9.11984
▁interest	-9.11985
▁January	-9.12157
▁outside	-9.12222
▁sense	-9.12265
▁options	-9.12279
▁Don	-9.12339
!!	-9.12352
▁position	-9.12496
▁provides	-9.12534
▁choose	-9.12805
▁specific	-9.12832
▁common	-9.12933
▁general	-9.1297
▁October	-9.13226
▁<	-9.13335
▁comments	-9.134
no	-9.13439
ley	-9.13843
▁September	-9.13862
line	-9.13886
▁ideas	-9.13895
▁events	-9.13961
▁risk	-9.13986
▁total	-9.1431
▁natural	-9.14397
▁education	-9.14405
▁rate	-9.1441
▁certain	-9.14458
▁inside	-9.14504
▁period	-9.14577
▁Friday	-9.14756
▁saw	-9.14888
▁usually	-9.14994
▁=	-9.15
▁financial	-9.15126
▁Also	-9.15155
▁friend	-9.1521
▁treatment	-9.15223
▁First	-9.15226
▁store	-9.15519
▁Thank	-9.15528
ty	-9.15537
▁comment	-9.15596
il	-9.15604
▁recent	-9.15711
▁individual	-9.15894
ive	-9.1595
▁via	-9.16043
▁provided	-9.16242
▁morning	-9.16313
▁cannot	-9.16341
▁build	-9.16358
▁ready	-9.16437
▁software	-9.16439
▁cut	-9.16485
▁similar	-9.16558
▁ways	-9.16563
▁hit	-9.16682
▁longer	-9.16698
▁follow	-9.16731
▁myself	-9.16748
▁step	-9.16857
▁San	-9.16929
▁higher	-9.17152
In	-9.17321
▁opportunity	-9.17398
▁La	-9.17427
▁application	-9.17554
▁member	-9.17613
▁held	-9.17634
▁created	-9.17671
▁unique	-9.17755
▁return	-9.17765
out	-9.17979
▁write	-9.18074
▁focus	-9.18181
ne	-9.18276
▁America	-9.18309
▁Then	-9.1837
▁table	-9.18468
ian	-9.18478
▁PM	-9.18564
▁Home	-9.18613
▁Park	-9.18616
▁Health	-9.18626
▁November	-9.18691
▁six	-9.18881
▁recently	-9.18916
▁according	-9.19032
▁changes	-9.19059
▁August	-9.19522
▁color	-9.19533
▁allow	-9.19816
▁sales	-9.19852
▁word	-9.19886
▁shows	-9.19906
▁Black	-9.19986
▁dating	-9.19995
▁£	-9.20352
▁security	-9.20413
▁red	-9.20478
▁currently	-9.20661
▁particular	-9.20729
▁weight	-9.20801
▁Best	-9.21032
ta	-9.21038
▁skin	-9.21077
▁file	-9.2118
▁late	-9.21183
▁takes	-9.21455
*	-9.21499
▁received	-9.21571
▁Why	-9.21601
Y	-9.2166
▁extra	-9.21666
▁Well	-9.21711
▁c	-9.21865
▁original	-9.21926
land	-9.22018
ling	-9.22056
▁amazing	-9.22152
▁includes	-9.22295
▁High	-9.22484
▁potential	-9.22489
▁summer	-9.22684
▁image	-9.22772
▁favorite	-9.22789
ine	-9.22869
▁players	-9.2296
▁playing	-9.2304
▁President	-9.23095
▁learning	-9.23325
▁chance	-9.23416
▁credit	-9.23419
▁hair	-9.23561
▁Saturday	-9.23575
▁December	-9.23591
▁watch	-9.23597
▁designed	-9.23694
▁upon	-9.23752
▁practice	-9.2388
▁patients	-9.23935
▁popular	-9.23978
▁Get	-9.24234
▁ensure	-9.24522
▁Great	-9.24593
▁remember	-9.24613
▁woman	-9.2472
▁cause	-9.24777
▁Go	-9.24839
▁app	-9.24853
▁hear	-9.24963
▁books	-9.24992
▁cover	-9.25149
▁throughout	-9.25198
▁growth	-9.25225
▁production	-9.25359
▁Good	-9.25473
based	-9.25476
▁record	-9.25515
▁tax	-9.25521
▁meeting	-9.25535
▁decision	-9.25772
▁v	-9.25772
▁moment	-9.25799
▁instead	-9.2591
▁consider	-9.25991
▁code	-9.26054
▁Sunday	-9.26131
▁items	-9.26229
▁systems	-9.26272
▁Love	-9.26326
▁users	-9.26392
▁lost	-9.2647
▁link	-9.26627
▁wasn	-9.2663
by	-9.26739
▁Most	-9.26777
▁goes	-9.26929
▁policy	-9.27093
▁private	-9.27108
▁insurance	-9.27238
▁entire	-9.27345
▁TV	-9.27408
▁interesting	-9.27449
▁choice	-9.27493
▁death	-9.27498
▁February	-9.27514
▁address	-9.27577
▁sale	-9.27604
one	-9.27616
▁latest	-9.27634
▁student	-9.27679
▁receive	-9.2771
▁worked	-9.2782
▁Mar	-9.27886
▁medical	-9.28086
age	-9.28125
um	-9.28169
▁drive	-9.28305
▁Google	-9.28404
nd	-9.28663
▁customer	-9.28722
▁themselves	-9.28741
▁skills	-9.28923
▁activities	-9.28927
old	-9.28938
▁wrong	-9.29403
▁hot	-9.29462
▁built	-9.29521
▁additional	-9.2957
▁quickly	-9.29657
▁brand	-9.29763
▁board	-9.29829
▁sound	-9.29839
▁download	-9.2986
▁worth	-9.29895
▁career	-9.30513
▁knowledge	-9.3056
▁UK	-9.30564
▁fast	-9.30567
▁lives	-9.30589
▁included	-9.30608
▁difficult	-9.30613
▁impact	-9.30824
▁movie	-9.30883
▁easily	-9.30973
$	-9.30999
▁Let	-9.31111
▁Pro	-9.31161
▁related	-9.31198
&	-9.31222
▁b	-9.31244
▁wide	-9.31439
▁Q	-9.31617
▁Business	-9.31664
▁Monday	-9.31874
▁loss	-9.31919
▁thinking	-9.31978
ch	-9.32138
▁Street	-9.32161
▁saying	-9.32184
▁road	-9.32192
▁itself	-9.32208
▁parents	-9.32309
▁News	-9.32342
▁material	-9.32392
▁involved	-9.32423
▁hold	-9.32491
▁seem	-9.3264
▁International	-9.32716
ra	-9.32732
ies	-9.32735
▁answer	-9.3275
id	-9.32793
▁travel	-9.32946
▁terms	-9.33038
▁English	-9.3306
▁option	-9.33219
▁Read	-9.33388
▁Department	-9.33408
▁user	-9.33668
▁White	-9.33721
▁decided	-9.33736
▁Facebook	-9.3383
▁See	-9.33858
▁marketing	-9.33867
▁goal	-9.33971
ized	-9.33974
▁fall	-9.34045
▁average	-9.34058
▁fine	-9.34113
be	-9.34124
▁pick	-9.34311
▁success	-9.34314
▁written	-9.3432
▁national	-9.34351
▁ability	-9.34507
▁Red	-9.34519
▁Price	-9.34525
▁environment	-9.34684
▁door	-9.34723
▁approach	-9.34749
of	-9.34969
▁location	-9.35007
▁China	-9.35034
▁piece	-9.35098
▁stuff	-9.35141
▁effect	-9.35379
▁sign	-9.35491
▁click	-9.35517
▁court	-9.35777
▁felt	-9.35927
▁photo	-9.36081
▁release	-9.36098
▁Even	-9.36317
pm	-9.36712
▁Service	-9.36838
▁green	-9.36864
▁police	-9.36864
▁computer	-9.36879
▁lower	-9.37005
▁safe	-9.37025
▁save	-9.37045
▁College	-9.37054
▁cases	-9.3712
▁wait	-9.37184
▁projects	-9.37303
▁source	-9.37486
▁pain	-9.37502
▁purchase	-9.37571
U	-9.37597
▁walk	-9.37611
ish	-9.37716
▁former	-9.37771
▁plans	-9.3779
▁Me	-9.37882
▁relationship	-9.38026
▁modern	-9.38186
▁attention	-9.38245
▁gave	-9.38247
▁huge	-9.38431
▁fire	-9.3856
▁ground	-9.38575
▁David	-9.38582
▁clean	-9.38592
This	-9.38704
▁network	-9.38843
▁Yes	-9.39091
▁Man	-9.39121
▁international	-9.39135
▁bar	-9.39452
▁town	-9.39574
▁heard	-9.39644
▁political	-9.39882
ting	-9.40006
▁standard	-9.40059
▁Group	-9.40084
▁Al	-9.40104
me	-9.40106
▁programs	-9.40214
▁India	-9.40265
▁improve	-9.40326
▁definitely	-9.40425
ma	-9.4043
▁Hi	-9.40446
▁situation	-9.40448
▁completely	-9.40449
do	-9.40642
▁wish	-9.40796
▁center	-9.4086
▁Posted	-9.4088
▁term	-9.40893
da	-9.40973
▁London	-9.41024
▁picture	-9.41197
▁girl	-9.41216
▁countries	-9.4124
▁box	-9.41291
▁maybe	-9.41457
▁legal	-9.41466
▁effective	-9.41665
▁benefits	-9.41784
▁began	-9.41969
▁break	-9.42001
▁track	-9.42167
▁costs	-9.42171
▁photos	-9.42344
▁subject	-9.42359
▁eyes	-9.42427
▁necessary	-9.42442
▁significant	-9.42496
▁fit	-9.4252
▁spend	-9.426
▁levels	-9.42648
▁variety	-9.42655
▁giving	-9.42697
▁sometimes	-9.42701
▁expected	-9.42722
▁blood	-9.42742
▁sex	-9.42743
▁war	-9.4277
▁Z	-9.42774
▁analysis	-9.42813
▁clients	-9.42865
ate	-9.42874
un	-9.42968
▁solution	-9.43027
▁section	-9.4307
▁became	-9.43187
▁Services	-9.43187
▁land	-9.43236
▁conditions	-9.43253
▁located	-9.43268
▁send	-9.43295
▁response	-9.43398
▁collection	-9.43457
▁mother	-9.43516
▁tried	-9.43579
▁wonderful	-9.43673
▁trip	-9.43782
▁cool	-9.43865
▁Are	-9.43919
▁played	-9.44018
et	-9.44021
▁global	-9.44048
▁Christmas	-9.44216
▁Her	-9.44227
▁stand	-9.44229
▁equipment	-9.44338
ur	-9.44361
▁starting	-9.44447
▁f	-9.44535
▁happen	-9.44628
▁Many	-9.4465
▁baby	-9.44792
▁safety	-9.44793
▁college	-9.44933
▁daily	-9.44989
▁Other	-9.44996
ad	-9.45124
▁sites	-9.45129
Z	-9.45402
▁round	-9.4544
▁certainly	-9.45525
est	-9.4557
▁knew	-9.45573
▁text	-9.45664
▁hands	-9.45713
▁kitchen	-9.45744
▁leading	-9.46059
▁mobile	-9.46075
▁machine	-9.46367
▁groups	-9.4639
▁parts	-9.46479
▁floor	-9.46561
▁pm	-9.46574
▁resources	-9.46593
▁character	-9.46619
▁types	-9.46671
la	-9.46806
▁excellent	-9.46847
▁gives	-9.47036
▁reviews	-9.47065
go	-9.47215
ization	-9.47298
▁feeling	-9.47377
▁weekend	-9.47626
▁player	-9.47663
▁View	-9.47686
▁language	-9.47911
▁positive	-9.47938
▁thanks	-9.4797
[	-9.48149
ant	-9.48159
▁About	-9.48248
▁dog	-9.48386
▁message	-9.48398
▁East	-9.48428
▁allows	-9.48958
▁looked	-9.48958
▁Time	-9.48977
▁eye	-9.49181
▁Since	-9.49271
▁interested	-9.49304
▁fresh	-9.49341
▁AM	-9.49354
▁multiple	-9.4947
▁Tuesday	-9.49549
▁exactly	-9.49681
▁feature	-9.49896
os	-9.49905
▁tools	-9.49974
▁organization	-9.50013
▁difference	-9.5007
▁Green	-9.50175
▁turned	-9.50284
):	-9.50394
▁Top	-9.5041
▁sub	-9.50451
▁Y	-9.50569
▁Inc	-9.50569
▁himself	-9.50583
▁essay	-9.507
▁Research	-9.50797
▁al	-9.50831
▁eat	-9.50906
▁m	-9.50937
rd	-9.51016
▁Thursday	-9.51052
▁digital	-9.51114
▁base	-9.51168
▁California	-9.51197
▁sent	-9.51294
▁Paul	-9.51402
▁considered	-9.51535
▁stories	-9.51549
▁towards	-9.51667
▁published	-9.51689
day	-9.51815
▁highly	-9.51846
▁pressure	-9.5188
ary	-9.51926
▁effects	-9.52163
▁Wednesday	-9.52183
▁Court	-9.52241
▁Like	-9.52293
▁wife	-9.52357
per	-9.52395
▁g	-9.52529
▁son	-9.52573
▁gets	-9.5271
▁begin	-9.52753
▁previous	-9.52823
=	-9.52834
▁hotel	-9.52882
▁race	-9.53078
▁Once	-9.53131
▁stock	-9.53178
▁note	-9.53191
ally	-9.53224
▁pro	-9.53366
▁providing	-9.53467
▁hour	-9.53537
▁directly	-9.53579
▁finally	-9.53591
▁method	-9.53619
▁wrote	-9.53622
▁Information	-9.53634
▁wall	-9.53727
▁prices	-9.53847
▁evidence	-9.53999
ted	-9.54007
ir	-9.54008
▁guy	-9.5423
li	-9.54267
▁planning	-9.54364
▁expect	-9.54393
end	-9.54397
▁nature	-9.54518
▁Air	-9.54585
▁Office	-9.54594
▁develop	-9.54605
▁reach	-9.54651
ro	-9.54898
▁spent	-9.54904
▁regular	-9.54954
▁talking	-9.54982
▁device	-9.55082
▁quick	-9.55207
▁loved	-9.55275
▁require	-9.55291
▁guys	-9.55375
▁War	-9.5541
▁internet	-9.55475
▁brought	-9.55484
▁People	-9.55717
▁Online	-9.5591
You	-9.55956
▁bed	-9.55987
ter	-9.55994
▁Post	-9.56007
mm	-9.56037
▁Car	-9.5641
▁released	-9.56501
▁screen	-9.56632
▁paid	-9.56727
ful	-9.56731
Q	-9.56823
▁physical	-9.56836
▁agree	-9.56958
▁super	-9.57041
▁reported	-9.57148
▁couldn	-9.57321
▁match	-9.57331
▁apply	-9.57347
▁Un	-9.5737
▁images	-9.57456
▁father	-9.57504
▁beginning	-9.57507
▁successful	-9.57607
▁James	-9.57609
▁Washington	-9.57629
▁stage	-9.57654
▁miles	-9.57764
▁speed	-9.57802
▁activity	-9.57819
▁Have	-9.57867
▁Last	-9.57869
▁economic	-9.58007
▁culture	-9.58038
▁moving	-9.58131
▁Michael	-9.58221
▁led	-9.58255
ol	-9.58383
▁grow	-9.58669
▁Life	-9.58671
▁double	-9.58798
▁growing	-9.58836
▁healthy	-9.58963
▁Use	-9.58981
▁individuals	-9.59135
▁plant	-9.59142
▁Bar	-9.59194
▁benefit	-9.59245
▁Will	-9.59365
he	-9.59446
▁ball	-9.59846
?”	-9.59893
▁campaign	-9.59931
▁rights	-9.59951
▁limited	-9.59969
▁function	-9.59988
▁General	-9.60312
▁deep	-9.60369
▁fully	-9.60454
▁»	-9.60569
▁Web	-9.60588
▁Art	-9.60866
▁anti	-9.61056
▁:)	-9.61169
▁developed	-9.61212
▁alone	-9.61222
▁president	-9.61278
▁Board	-9.61336
ri	-9.61422
▁Over	-9.61467
▁Add	-9.61548
▁Road	-9.61553
ance	-9.61794
▁truly	-9.61821
▁Canada	-9.61982
▁creating	-9.62075
▁title	-9.62084
▁trade	-9.62117
▁statement	-9.62141
!!!	-9.62189
▁n	-9.6227
▁understanding	-9.62446
▁helps	-9.6249
men	-9.62523
▁materials	-9.62594
▁pass	-9.62617
▁shot	-9.62636
▁pictures	-9.62691
for	-9.62714
▁normal	-9.6272
▁happened	-9.62763
▁feet	-9.62859
▁sort	-9.62994
▁Design	-9.62998
▁Check	-9.63002
▁guide	-9.6309
▁Who	-9.63096
▁Make	-9.63112
▁Although	-9.63139
▁employees	-9.63241
▁earlier	-9.63279
▁husband	-9.63306
we	-9.63382
▁Mo	-9.63576
▁voice	-9.63683
mo	-9.63713
▁charge	-9.63716
▁girls	-9.63789
▁middle	-9.63807
▁traditional	-9.63811
▁states	-9.63846
▁requirements	-9.63902
▁Twitter	-9.63927
▁businesses	-9.63944
▁budget	-9.64043
▁cancer	-9.64145
▁author	-9.64316
▁effort	-9.64321
ak	-9.64373
▁region	-9.64479
▁Management	-9.64532
ka	-9.64605
▁heat	-9.64735
▁Company	-9.6477
▁shall	-9.64821
▁goals	-9.64886
▁challenge	-9.65061
▁join	-9.65097
▁advice	-9.65289
▁overall	-9.6531
▁band	-9.65314
▁Because	-9.65395
ous	-9.65414
▁places	-9.65508
▁wants	-9.65747
▁tool	-9.65786
▁Jesus	-9.65789
ner	-9.65844
▁Le	-9.65851
▁Big	-9.65863
▁posted	-9.65874
ce	-9.65901
▁particularly	-9.65911
▁disease	-9.65989
▁d	-9.66008
▁Today	-9.66029
▁opportunities	-9.66036
ca	-9.661
▁Mark	-9.66102
ler	-9.66105
▁families	-9.66236
▁sweet	-9.66248
▁allowed	-9.66261
▁nearly	-9.66276
▁purpose	-9.66306
▁shop	-9.66342
▁although	-9.66358
▁cash	-9.66424
▁changed	-9.66472
em	-9.6652
▁construction	-9.66523
ke	-9.66564
▁gold	-9.66655
▁shown	-9.66744
▁announced	-9.66762
▁European	-9.66961
ah	-9.66974
▁Windows	-9.66974
▁fans	-9.67097
▁dark	-9.67133
way	-9.6715
▁offered	-9.6723
▁platform	-9.67274
▁Internet	-9.67346
▁investment	-9.67452
▁billion	-9.67472
▁haven	-9.67477
▁gone	-9.67571
▁avoid	-9.67589
ated	-9.67717
▁THE	-9.67771
▁fan	-9.67778
▁met	-9.6779
▁recommend	-9.67819
▁Director	-9.67822
▁song	-9.67825
▁increased	-9.67842
▁Act	-9.67934
▁wouldn	-9.68115
▁Year	-9.68212
▁Click	-9.68246
▁cold	-9.683
▁dis	-9.68316
▁Association	-9.68343
▁Two	-9.68352
▁basic	-9.68371
▁Education	-9.68396
▁blue	-9.68404
▁Church	-9.68411
▁According	-9.68436
▁beyond	-9.68653
▁pages	-9.68721
se	-9.68841
▁degree	-9.68872
▁director	-9.68956
▁active	-9.68998
▁teams	-9.69048
▁serious	-9.69075
▁sell	-9.69081
▁w	-9.6936
▁church	-9.69399
▁schools	-9.69441
▁Council	-9.69526
▁Up	-9.69533
▁jobs	-9.6954
▁aren	-9.6956
▁en	-9.69567
▁solutions	-9.69695
▁easier	-9.69716
▁act	-9.69777
▁touch	-9.69779
off	-9.69785
▁multi	-9.69791
▁perhaps	-9.69811
▁direct	-9.69835
▁ahead	-9.70024
▁serve	-9.70026
▁con	-9.70064
▁rates	-9.70362
▁moved	-9.7041
▁gas	-9.70453
▁vehicle	-9.70476
▁studies	-9.70597
▁Club	-9.70774
wood	-9.70825
▁sleep	-9.70852
▁rules	-9.70901
di	-9.70906
▁reports	-9.70989
▁lack	-9.71079
im	-9.71129
▁commercial	-9.71147
▁Law	-9.71249
ham	-9.7126
▁numbers	-9.71515
▁Water	-9.71554
▁sharing	-9.71601
▁compared	-9.71723
▁unit	-9.71729
▁force	-9.71791
▁Texas	-9.71793
▁opening	-9.71953
▁seeing	-9.71986
▁Oh	-9.72029
▁thank	-9.72032
▁gift	-9.7205
▁Europe	-9.72089
den	-9.72143
▁Open	-9.72211
▁applications	-9.72224
ge	-9.72263
▁Super	-9.72456
▁science	-9.72622
▁reasons	-9.7268
▁bottom	-9.7269
▁storage	-9.72703
ent	-9.72779
▁essential	-9.72835
▁reduce	-9.72868
▁plus	-9.72873
▁client	-9.72943
▁finish	-9.72959
▁bank	-9.73045
▁firm	-9.73157
▁immediately	-9.73169
ha	-9.73308
▁seven	-9.73312
▁weather	-9.7336
▁basis	-9.73595
ville	-9.736
▁Download	-9.73674
Re	-9.7372
▁letter	-9.73737
▁Apple	-9.73824
▁Australia	-9.73839
▁request	-9.73873
▁Book	-9.73882
▁spot	-9.73938
term	-9.73993
▁[...]	-9.74082
▁et	-9.7412
▁Review	-9.74139
▁Jan	-9.74177
▁patient	-9.74225
▁income	-9.7429
▁daughter	-9.74349
▁Each	-9.74372
▁damage	-9.74439
▁creative	-9.7456
▁setting	-9.74596
▁fight	-9.74716
▁helped	-9.7478
▁lots	-9.74797
▁condition	-9.7481
ut	-9.74813
▁associated	-9.74875
▁Take	-9.74913
▁wood	-9.74947
▁figure	-9.74959
▁item	-9.75267
▁warm	-9.75461
pe	-9.75488
▁supply	-9.7567
if	-9.75771
▁wear	-9.75875
ating	-9.75877
▁ones	-9.75995
▁King	-9.76178
▁official	-9.76255
▁Another	-9.76265
▁finished	-9.76542
▁El	-9.76594
▁drop	-9.76757
▁trust	-9.76817
▁lines	-9.76834
▁display	-9.76924
▁whose	-9.77008
▁Public	-9.77025
ba	-9.77093
▁useful	-9.77111
▁surface	-9.77121
▁annual	-9.77208
▁extremely	-9.77235
▁strategy	-9.77373
▁tips	-9.77456
ul	-9.77482
▁la	-9.7776
▁regarding	-9.78028
▁structure	-9.78126
▁offering	-9.7835
▁window	-9.7836
led	-9.78408
▁Full	-9.7843
▁Find	-9.78457
▁press	-9.78495
▁followed	-9.78499
▁Lake	-9.78505
▁star	-9.78549
sh	-9.78593
▁sports	-9.78603
field	-9.78778
▁speak	-9.78821
▁club	-9.78844
▁produce	-9.78869
▁British	-9.78885
▁protection	-9.78917
▁French	-9.79186
▁coffee	-9.79215
▁Mac	-9.793
▁Show	-9.7952
ex	-9.79588
lin	-9.7963
like	-9.79713
side	-9.7987
▁population	-9.79889
▁born	-9.79943
▁glass	-9.7997
▁cell	-9.801
▁wedding	-9.8016
▁comfortable	-9.80261
▁guess	-9.80312
▁interview	-9.8033
▁protect	-9.80381
▁USA	-9.80386
io	-9.80418
▁powerful	-9.80427
▁cup	-9.80435
▁claim	-9.80481
▁Bill	-9.80524
▁Science	-9.8061
▁greater	-9.80791
▁mid	-9.80801
▁complex	-9.80839
▁Star	-9.80851
▁awesome	-9.80886
▁sun	-9.81035
▁sea	-9.81043
▁Women	-9.81067
▁Brown	-9.81075
▁steps	-9.81134
▁federal	-9.8114
▁Power	-9.81159
▁correct	-9.81171
\	-9.81178
▁Obama	-9.81274
▁vs	-9.81315
▁poor	-9.81335
▁learned	-9.81376
▁kept	-9.81405
▁cards	-9.81424
▁primary	-9.81425
▁Community	-9.81488
▁named	-9.81559
▁delivery	-9.81645
▁evening	-9.81814
▁brain	-9.81859
▁finding	-9.81869
▁helping	-9.8193
▁military	-9.81936
▁straight	-9.81939
▁camera	-9.82092
▁views	-9.82106
▁society	-9.82147
der	-9.82153
▁During	-9.82244
▁Trump	-9.82273
▁info	-9.8233
▁ten	-9.82365
▁Development	-9.82411
▁·	-9.82413
▁path	-9.82435
▁tour	-9.82516
▁appear	-9.82531
▁prior	-9.82658
▁Out	-9.82716
▁dry	-9.82718
▁eight	-9.82748
ac	-9.8277
▁notice	-9.82908
net	-9.82929
▁Date	-9.82953
▁bag	-9.82958
▁driving	-9.82994
▁critical	-9.82996
▁ex	-9.83009
▁respect	-9.83173
▁remain	-9.83204
▁drug	-9.83207
con	-9.83276
▁selection	-9.83398
▁target	-9.83429
▁Back	-9.83521
▁sold	-9.8357
▁appropriate	-9.83608
▁Pre	-9.83674
▁truth	-9.83722
▁Blue	-9.83785
▁served	-9.83806
all	-9.83818
▁Hall	-9.8391
▁River	-9.83962
▁Where	-9.83992
▁Social	-9.83999
▁actual	-9.84038
back	-9.84136
▁Music	-9.84182
▁attack	-9.84249
▁thoughts	-9.84267
over	-9.84273
▁responsible	-9.84282
ite	-9.84299
▁existing	-9.8434
▁characters	-9.84345
);	-9.8442
lo	-9.84442
ize	-9.84635
▁efforts	-9.84671
▁partner	-9.84721
▁whatever	-9.84729
▁cross	-9.84741
▁status	-9.84782
free	-9.848
▁passed	-9.84813
▁cells	-9.84821
▁CA	-9.84856
▁topic	-9.8488
▁prevent	-9.84886
▁larger	-9.84897
po	-9.85025
▁largest	-9.8528
▁System	-9.85347
▁economy	-9.8555
house	-9.85584
▁select	-9.85622
▁experienced	-9.85642
▁wine	-9.85703
ier	-9.85705
▁teaching	-9.85754
▁album	-9.85764
▁custom	-9.85814
▁reality	-9.85904
▁welcome	-9.85943
▁Program	-9.85952
▁Call	-9.86066
▁owner	-9.86087
▁mentioned	-9.86102
▁advantage	-9.86103
▁host	-9.86106
▁update	-9.86117
ana	-9.86199
▁movement	-9.86314
▁journey	-9.86336
les	-9.86437
▁Data	-9.86464
▁biggest	-9.86468
▁garden	-9.8654
▁older	-9.86542
▁devices	-9.86598
▁pieces	-9.86643
▁Project	-9.86752
▁helpful	-9.86808
bo	-9.86834
▁dinner	-9.86947
▁waiting	-9.8698
▁Institute	-9.86986
▁Family	-9.87007
▁lose	-9.87101
ee	-9.87215
▁bill	-9.87216
▁remove	-9.8722
▁street	-9.87267
▁generally	-9.87299
▁Smith	-9.87309
▁Bay	-9.87337
▁uses	-9.87408
▁traffic	-9.87409
▁leaders	-9.87503
▁length	-9.87546
▁balance	-9.87554
▁onto	-9.87563
▁enter	-9.87567
▁models	-9.87602
▁scene	-9.87609
▁fish	-9.87636
▁Bank	-9.87694
▁Florida	-9.87736
▁casino	-9.87857
ga	-9.87866
▁Hotel	-9.87918
▁Long	-9.87923
▁rock	-9.87923
▁sounds	-9.88005
▁Contact	-9.88016
▁cheap	-9.88026
▁happens	-9.88052
....	-9.88147
▁ideal	-9.88178
▁absolutely	-9.88186
▁contract	-9.88366
▁Lord	-9.88454
▁died	-9.88466
▁score	-9.88499
▁winter	-9.88508
▁Christian	-9.88517
What	-9.88594
▁continued	-9.88614
▁fair	-9.88629
▁foot	-9.88658
▁workers	-9.88671
▁watching	-9.88676
é	-9.88797
ni	-9.88836
▁demand	-9.88896
▁background	-9.88997
▁shared	-9.89078
▁methods	-9.89088
▁achieve	-9.89188
ster	-9.8922
▁spring	-9.89332
▁Sun	-9.89367
ology	-9.89415
▁Con	-9.89477
▁carry	-9.89496
▁Team	-9.89601
so	-9.89689
▁dead	-9.89692
▁Report	-9.89734
▁audience	-9.89771
▁capital	-9.89882
▁Media	-9.89906
▁excited	-9.89915
▁vote	-9.89956
▁requires	-9.89995
▁bought	-9.9002
If	-9.90049
▁Any	-9.90099
▁connection	-9.90107
▁conference	-9.90267
ey	-9.90365
▁tree	-9.90397
▁button	-9.90422
▁park	-9.90434
ho	-9.9053
▁Christ	-9.90565
▁files	-9.90648
▁sugar	-9.9076
▁coach	-9.90763
ists	-9.90804
▁Government	-9.9081
▁leader	-9.90831
but	-9.90916
▁mine	-9.91018
▁Page	-9.91027
▁sit	-9.91049
▁Men	-9.9107
▁soft	-9.91139
▁shopping	-9.91186
▁Ma	-9.91335
▁Food	-9.91358
▁Dec	-9.91374
▁print	-9.91392
▁fear	-9.91454
▁exercise	-9.91545
▁heavy	-9.91557
▁links	-9.91558
▁pop	-9.916
▁pool	-9.91677
▁discussion	-9.91726
ise	-9.91798
▁completed	-9.91886
▁opinion	-9.91887
ard	-9.91974
▁manager	-9.92063
▁England	-9.9209
▁solid	-9.92225
▁factors	-9.92229
▁therefore	-9.92303
▁Central	-9.92305
well	-9.92404
▁payment	-9.92449
▁communication	-9.92519
▁posts	-9.92584
▁meaning	-9.9264
▁lovely	-9.9273
not	-9.92776
▁established	-9.92832
▁Am	-9.92836
ya	-9.92881
▁Every	-9.92989
my	-9.93094
▁Beach	-9.93146
▁Press	-9.93175
▁Ko	-9.93223
▁plenty	-9.93236
▁George	-9.933
▁competition	-9.93328
▁showed	-9.93346
▁copy	-9.93399
▁yes	-9.9343
▁senior	-9.93478
®	-9.93522
▁Care	-9.93616
▁highest	-9.9365
▁Ar	-9.93972
▁covered	-9.93987
▁PC	-9.94019
▁Next	-9.94061
▁fill	-9.94065
▁handle	-9.94081
au	-9.94291
▁recipe	-9.9432
▁stress	-9.94385
▁classic	-9.94433
▁totally	-9.94519
▁fat	-9.94569
▁h	-9.94651
ING	-9.94664
▁maintain	-9.94685
▁restaurant	-9.94706
▁holiday	-9.94713
▁Rock	-9.94767
▁toward	-9.94774
▁Gold	-9.94777
port	-9.94857
▁closed	-9.94909
▁engine	-9.9493
▁concept	-9.9503
izing	-9.95066
▁Part	-9.95233
He	-9.95248
?"	-9.95345
▁classes	-9.95405
▁Chinese	-9.95505
”.	-9.95518
▁calls	-9.95569
▁football	-9.9561
▁determine	-9.95651
▁metal	-9.95773
▁shape	-9.95877
▁En	-9.95887
op	-9.95956
▁decide	-9.95976
▁Peter	-9.96005
▁keeping	-9.9602
▁hospital	-9.96066
▁distance	-9.96121
▁Africa	-9.96339
▁central	-9.96378
use	-9.96393
▁gain	-9.96408
▁taste	-9.96451
▁manage	-9.96541
▁clearly	-9.9655
▁Di	-9.96594
▁memory	-9.96603
min	-9.96698
▁showing	-9.96745
▁runs	-9.96869
▁schedule	-9.96931
▁majority	-9.9704
▁strength	-9.9709
▁buying	-9.9709
▁Their	-9.97119
▁challenges	-9.97159
▁Maybe	-9.97275
▁Only	-9.97283
▁ice	-9.97404
▁presented	-9.97462
▁nation	-9.97469
▁communities	-9.97485
▁forget	-9.9749
▁Robert	-9.97547
▁teacher	-9.97557
▁minute	-9.97582
▁session	-9.97606
ang	-9.9769
▁Description	-9.97789
▁mix	-9.97911
▁names	-9.97947
▁flow	-9.9802
▁rich	-9.98053
▁adding	-9.98196
▁miss	-9.98234
▁Indian	-9.98314
▁fashion	-9.98331
▁loan	-9.98359
▁Journal	-9.98373
▁progress	-9.98473
="	-9.985
▁colors	-9.98527
ko	-9.98544
▁driver	-9.98553
▁videos	-9.98594
▁elements	-9.98629
▁dream	-9.98666
▁values	-9.98677
pa	-9.98701
▁II	-9.98711
▁estate	-9.98864
▁IT	-9.98872
▁enjoyed	-9.98885
▁direction	-9.98931
▁produced	-9.99004
▁prepared	-9.99022
tic	-9.9908
▁net	-9.99097
▁cream	-9.99108
▁opened	-9.99124
▁sector	-9.99163
▁placed	-9.99167
▁spending	-9.99178
▁Committee	-9.99205
▁separate	-9.99206
▁testing	-9.99221
▁Both	-9.99277
▁ended	-9.99381
▁Game	-9.99441
q	-9.99446
▁Product	-9.99513
▁quarter	-9.99513
▁trial	-9.99569
▁discuss	-9.99641
▁claims	-9.99694
▁Real	-9.99699
▁capacity	-9.99765
▁Manager	-9.99779
▁District	-9.998
▁Chris	-9.99804
▁doctor	-9.99854
▁parties	-9.99949
▁Head	-9.99978
▁century	-10.001
▁aware	-10.0011
▁perform	-10.0015
ial	-10.0016
▁leaving	-10.0018
▁Island	-10.0029
▁developing	-10.0035
▁caused	-10.0043
▁described	-10.005
▁remains	-10.0055
▁Chicago	-10.0055
▁doubt	-10.0062
▁deliver	-10.0071
▁seemed	-10.0071
▁server	-10.0072
▁standards	-10.0075
▁artist	-10.0084
▁block	-10.0085
▁Amazon	-10.0094
▁Set	-10.0103
▁dress	-10.0106
▁initial	-10.0117
▁task	-10.012
▁funds	-10.0128
▁Before	-10.013
▁wonder	-10.0132
▁despite	-10.0142
▁thus	-10.015
uk	-10.0155
▁o	-10.0156
▁appears	-10.0164
▁Nov	-10.0166
▁technical	-10.0172
▁Fire	-10.018
▁menu	-10.0181
▁master	-10.0181
▁defense	-10.0185
▁organizations	-10.0187
▁k	-10.019
ft	-10.0199
▁Mary	-10.0199
▁slow	-10.0208
▁Ha	-10.0212
▁profile	-10.0215
▁becoming	-10.0216
▁flat	-10.0221
▁Video	-10.0223
▁boy	-10.0225
mer	-10.0226
▁Hill	-10.0229
▁department	-10.023
▁waste	-10.0236
▁spread	-10.0246
org	-10.0248
▁Under	-10.0253
▁Tom	-10.0255
▁entry	-10.0256
▁core	-10.0262
▁Those	-10.0263
▁fantastic	-10.0267
ber	-10.0273
▁rooms	-10.0286
TM	-10.0287
▁station	-10.0288
▁radio	-10.0295
za	-10.0302
▁pair	-10.0303
▁male	-10.0303
▁alternative	-10.0311
▁Medical	-10.0314
▁Live	-10.0326
▁Mike	-10.0326
▁continues	-10.0328
▁operations	-10.034
▁negative	-10.0341
ja	-10.0344
▁Type	-10.0348
▁France	-10.0362
ten	-10.0363
▁diet	-10.0368
▁marriage	-10.0373
▁Play	-10.0383
▁treat	-10.0398
▁hearing	-10.0398
▁Work	-10.04
▁Photo	-10.0408
▁fuel	-10.0413
▁furniture	-10.0416
▁listed	-10.0417
▁Ben	-10.0418
▁Market	-10.0436
▁coverage	-10.0442
▁raised	-10.0447
▁beach	-10.0449
▁asking	-10.0451
▁Technology	-10.0472
▁Per	-10.0477
ger	-10.0478
▁friendly	-10.0485
gen	-10.0489
▁comfort	-10.0492
▁Watch	-10.0494
▁Na	-10.0495
▁accept	-10.0497
▁winning	-10.0499
▁facilities	-10.0514
No	-10.0514
mail	-10.0517
▁Special	-10.0539
▁brother	-10.0545
dy	-10.0551
▁injury	-10.056
▁mission	-10.0564
▁putting	-10.057
▁plastic	-10.057
▁ride	-10.0572
▁relevant	-10.0572
▁map	-10.0583
▁debt	-10.0587
▁Oct	-10.0588
▁transfer	-10.0589
▁l	-10.059
ence	-10.0596
▁package	-10.0598
▁die	-10.0604
▁knows	-10.0604
▁owners	-10.0608
▁foreign	-10.0609
▁document	-10.0612
▁rule	-10.0614
▁walking	-10.0618
▁thousands	-10.0618
▁/>	-10.062
▁changing	-10.0625
ning	-10.0626
▁plants	-10.0629
▁wind	-10.0632
▁records	-10.0636
<	-10.064
ship	-10.0643
▁eating	-10.0662
▁independent	-10.0662
han	-10.0664
▁leadership	-10.0665
▁beauty	-10.0684
▁award	-10.0687
▁salt	-10.0688
▁smaller	-10.0694
▁animals	-10.0695
▁peace	-10.0696
▁forms	-10.07
▁Keep	-10.0701
▁attempt	-10.0704
▁secure	-10.0705
▁becomes	-10.0708
▁suggest	-10.0709
▁mostly	-10.0709
▁contains	-10.0714
▁Foundation	-10.0715
▁Search	-10.0717
▁drink	-10.0717
▁paint	-10.072
|	-10.0726
▁Location	-10.0728
▁proper	-10.0734
▁temperature	-10.0737
▁Support	-10.0737
▁combination	-10.0739
▁faith	-10.0741
▁Security	-10.0742
".	-10.0748
▁medium	-10.0749
▁mental	-10.076
▁Valley	-10.076
▁scale	-10.0761
▁assist	-10.0764
▁smart	-10.0772
▁married	-10.0774
▁steel	-10.0775
▁Ho	-10.0776
▁residents	-10.0779
▁teachers	-10.0781
ci	-10.0789
va	-10.0797
▁presence	-10.0803
▁agreement	-10.0803
▁Li	-10.0804
▁cast	-10.0806
▁female	-10.0806
▁League	-10.081
▁leaves	-10.0814
▁articles	-10.0816
▁Bo	-10.0817
▁realize	-10.0825
▁expensive	-10.0829
▁cars	-10.0832
ino	-10.0845
▁vision	-10.0857
▁Lu	-10.0862
▁academic	-10.0864
don	-10.0864
▁German	-10.0866
▁tea	-10.0867
▁pattern	-10.0867
ab	-10.0868
▁repair	-10.0875
▁funding	-10.0876
▁properties	-10.0881
▁dance	-10.0886
▁>>	-10.0892
▁conversation	-10.0892
▁holding	-10.0893
▁managed	-10.0895
▁Union	-10.09
▁j	-10.09
▁square	-10.0904
ina	-10.0906
ED	-10.0906
ng	-10.0908
▁Thomas	-10.0912
town	-10.0933
▁Old	-10.0935
▁di	-10.0944
!”	-10.0945
▁glad	-10.0949
▁Number	-10.0952
▁catch	-10.0952
▁Note	-10.0953
▁train	-10.0961
▁Learn	-10.0961
▁selected	-10.0963
▁sources	-10.0963
▁seat	-10.0966
▁actions	-10.0966
▁famous	-10.0969
▁Party	-10.097
▁listen	-10.0975
▁Share	-10.0977
▁selling	-10.0979
que	-10.0981
▁bathroom	-10.0986
▁numerous	-10.0987
▁otherwise	-10.0989
▁missing	-10.0993
lan	-10.0997
▁starts	-10.0997
▁stone	-10.1
▁beat	-10.1004
▁meant	-10.1007
▁operating	-10.101
▁guests	-10.1014
▁cute	-10.1015
▁Times	-10.1018
▁panel	-10.1027
▁experiences	-10.1028
▁fee	-10.1041
▁agency	-10.1045
▁slightly	-10.1049
▁battle	-10.1052
light	-10.1057
▁homes	-10.1063
▁advanced	-10.107
▁snow	-10.1074
more	-10.1081
ford	-10.1086
her	-10.1091
▁updated	-10.1109
▁Very	-10.1127
▁chicken	-10.1129
▁auto	-10.113
▁Microsoft	-10.1131
▁Lo	-10.1132
▁Martin	-10.1148
▁Los	-10.1149
▁birth	-10.115
▁Size	-10.115
▁rise	-10.115
nt	-10.1152
ping	-10.1158
▁songs	-10.1165
▁mention	-10.1173
▁mom	-10.1184
▁explain	-10.1185
▁busy	-10.1187
▁pull	-10.1187
which	-10.1193
There	-10.1198
▁relationships	-10.1204
▁district	-10.1205
▁crusher	-10.1206
▁previously	-10.1206
▁dedicated	-10.1209
▁Comments	-10.1212
▁possibly	-10.1218
▁rain	-10.122
▁corner	-10.1222
▁climate	-10.1226
▁Lee	-10.1229
▁Guide	-10.1245
▁filled	-10.1245
▁African	-10.1249
▁theme	-10.1249
▁reached	-10.1249
ities	-10.1257
!)	-10.1259
▁pan	-10.1267
For	-10.127
▁exchange	-10.1279
▁History	-10.1281
ung	-10.1291
▁earth	-10.1303
▁discover	-10.1307
▁applied	-10.1317
▁grade	-10.1317
▁exciting	-10.1322
▁killed	-10.1323
▁focused	-10.1324
▁Sea	-10.1327
▁expert	-10.1338
▁generation	-10.134
ti	-10.1341
wa	-10.1342
▁bus	-10.1346
▁Sam	-10.1349
▁Reviews	-10.135
ap	-10.1351
▁Room	-10.1353
▁connect	-10.1353
▁edge	-10.1357
ray	-10.1358
▁adult	-10.136
ru	-10.1361
▁frame	-10.1361
▁documents	-10.1362
▁Sa	-10.1363
ong	-10.1365
▁factor	-10.1366
▁inter	-10.1378
ide	-10.1381
▁tough	-10.1387
▁officials	-10.1391
vo	-10.1395
▁decisions	-10.1396
▁Society	-10.1399
▁Mc	-10.1403
▁concerns	-10.1411
▁eventually	-10.1413
▁unless	-10.1419
▁administration	-10.142
▁operation	-10.1422
▁sitting	-10.1441
▁election	-10.1442
▁Japan	-10.1445
▁Series	-10.1457
▁influence	-10.147
▁Ne	-10.147
▁reference	-10.1472
▁experts	-10.1472
▁Ka	-10.1476
▁connected	-10.1499
ek	-10.1508
▁notes	-10.1512
sen	-10.1517
▁Name	-10.152
ability	-10.1522
▁sexual	-10.1528
▁sample	-10.1528
▁proud	-10.153
ward	-10.1532
ron	-10.1538
▁policies	-10.1538
▁detail	-10.1544
▁Conference	-10.1548
head	-10.155
▁ran	-10.156
▁Da	-10.1569
▁Police	-10.1578
▁identify	-10.1579
board	-10.1588
▁serving	-10.1594
▁tend	-10.1597
▁counter	-10.16
▁Joe	-10.1603
▁push	-10.1604
▁afternoon	-10.1607
▁signed	-10.1619
▁techniques	-10.1626
▁u	-10.1632
down	-10.1632
▁launch	-10.1637
▁Global	-10.1642
▁joined	-10.1644
▁Buy	-10.1644
▁trading	-10.1644
ative	-10.1655
▁appreciate	-10.1665
▁outdoor	-10.1668
▁advance	-10.167
▁assistance	-10.1671
▁stars	-10.1672
▁Table	-10.1677
▁yesterday	-10.1679
▁brings	-10.1683
▁south	-10.1683
gar	-10.1689
▁practices	-10.1689
▁install	-10.1692
▁hate	-10.1699
▁units	-10.1699
ure	-10.1703
▁Western	-10.1714
▁Master	-10.1719
ware	-10.1719
▁performed	-10.1721
▁Code	-10.1721
▁Details	-10.1734
▁nor	-10.1737
▁corporate	-10.1739
▁prefer	-10.1743
▁increasing	-10.1754
▁cheese	-10.1776
▁error	-10.1783
▁artists	-10.1786
▁volume	-10.1787
▁parking	-10.1793
▁fruit	-10.1793
▁writer	-10.1794
mi	-10.1795
▁calling	-10.1796
▁raise	-10.1798
▁Germany	-10.1798
▁milk	-10.18
▁Grand	-10.18
▁Feb	-10.1801
▁mouth	-10.1818
▁novel	-10.1819
king	-10.1822
▁Light	-10.1824
▁Human	-10.183
▁markets	-10.1832
▁Commission	-10.1836
▁behavior	-10.1838
▁seeking	-10.1838
bar	-10.1855
▁sister	-10.1856
▁draw	-10.1858
▁explore	-10.1863
▁processes	-10.1869
▁CD	-10.1872
▁{	-10.1876
▁prepare	-10.1883
▁worry	-10.1884
▁affect	-10.1886
▁bedroom	-10.1886
▁removed	-10.1887
▁maintenance	-10.1888
you	-10.1888
▁except	-10.1891
▁properly	-10.1892
▁Policy	-10.1892
▁university	-10.1897
▁Key	-10.1903
.[	-10.1905
▁manner	-10.1905
▁birthday	-10.1906
ney	-10.1912
▁Does	-10.1915
book	-10.1916
ped	-10.1924
▁brown	-10.1939
▁stores	-10.1939
▁Richard	-10.1942
▁CEO	-10.1945
▁worse	-10.1946
mp	-10.1967
▁minimum	-10.1972
▁instance	-10.1978
▁Scott	-10.198
▁format	-10.1981
red	-10.1983
▁movies	-10.1992
}	-10.1994
▁abuse	-10.1996
ator	-10.1999
▁Israel	-10.2002
▁attend	-10.2002
▁Su	-10.2003
ji	-10.2005
hi	-10.2008
ig	-10.2008
▁iPhone	-10.2012
▁Har	-10.2016
▁cleaning	-10.2018
can	-10.2022
▁standing	-10.2023
▁Plan	-10.2032
▁feels	-10.2042
▁Wall	-10.2043
▁Source	-10.2045
▁ship	-10.2045
▁environmental	-10.2047
▁whom	-10.2047
▁sets	-10.2048
▁fix	-10.2057
▁library	-10.2065
▁Right	-10.2065
▁imagine	-10.2067
▁Congress	-10.207
▁ourselves	-10.2073
▁Plus	-10.2075
▁Children	-10.2076
▁Ex	-10.209
▁William	-10.2101
▁stated	-10.2106
▁gun	-10.2106
▁Dan	-10.211
pro	-10.2113
▁leads	-10.2113
▁Steve	-10.2116
▁lunch	-10.2127
▁Cup	-10.2131
▁typically	-10.2138
▁ingredients	-10.2138
▁returned	-10.2142
▁allowing	-10.2144
▁responsibility	-10.2144
▁IN	-10.2149
▁Museum	-10.2151
let	-10.2155
▁delicious	-10.2156
▁Minister	-10.2158
▁PA	-10.216
ile	-10.2162
▁Centre	-10.2163
ring	-10.2165
▁appeared	-10.2172
▁count	-10.2173
▁laws	-10.2175
My	-10.2195
▁Whether	-10.2196
▁Android	-10.2197
▁lived	-10.22
▁species	-10.2201
▁animal	-10.2202
▁se	-10.2203
▁fell	-10.2205
▁north	-10.2212
▁AND	-10.2219
▁mass	-10.2228
▁context	-10.223
▁aid	-10.2234
▁desire	-10.2237
▁chat	-10.2244
▁readers	-10.2251
▁recommended	-10.2255
url	-10.2262
▁importance	-10.2263
tro	-10.2264
▁Control	-10.2271
ised	-10.2272
▁Sports	-10.2272
▁visitors	-10.2289
▁Using	-10.2291
▁caught	-10.2292
▁internal	-10.2301
▁fourth	-10.2304
▁Johnson	-10.231
room	-10.2315
▁cities	-10.2318
▁nine	-10.2318
tra	-10.232
▁mi	-10.2327
▁~	-10.2329
▁failed	-10.2331
▁suit	-10.2334
▁trees	-10.2335
▁Happy	-10.2336
▁mode	-10.2339
▁Did	-10.235
▁Award	-10.2355
▁chair	-10.2357
▁measures	-10.236
▁Related	-10.2364
▁centre	-10.2375
▁measure	-10.2378
▁wearing	-10.2382
▁housing	-10.2392
▁stopped	-10.2401
▁survey	-10.2404
▁shoes	-10.2406
kin	-10.2407
▁professionals	-10.2407
▁cent	-10.2414
sa	-10.2418
▁kid	-10.2419
▁Week	-10.2427
our	-10.2433
▁funny	-10.2434
▁Network	-10.2437
▁micro	-10.2437
car	-10.2437
▁cat	-10.2457
▁willing	-10.246
▁specifically	-10.2461
▁command	-10.2467
▁r	-10.2478
▁mark	-10.2483
ze	-10.2487
▁meat	-10.2488
▁Canadian	-10.249
▁confidence	-10.249
▁drugs	-10.2491
▁breakfast	-10.2492
▁bigger	-10.2501
▁motor	-10.2505
▁trouble	-10.2507
▁Night	-10.251
▁Which	-10.2513
▁telling	-10.2514
▁signs	-10.2514
art	-10.2517
▁Aug	-10.2517
▁episode	-10.2517
▁Jo	-10.2518
▁facility	-10.2519
▁bike	-10.2522
▁broken	-10.2525
▁object	-10.2525
▁Hospital	-10.2527
▁shipping	-10.2529
▁OF	-10.2533
▁meal	-10.2542
▁luck	-10.2543
▁fund	-10.2555
▁Look	-10.2558
▁feedback	-10.2562
▁Young	-10.2571
▁symptoms	-10.2572
▁Du	-10.2584
To	-10.2593
▁concerned	-10.2594
▁strategies	-10.2595
▁Place	-10.2603
▁missed	-10.2608
▁adults	-10.2609
▁paying	-10.2618
▁dogs	-10.2619
point	-10.2622
▁committed	-10.2628
▁promote	-10.2634
▁chocolate	-10.2635
▁NY	-10.2642
Read	-10.265
▁partners	-10.2656
with	-10.2663
▁encourage	-10.2663
▁flight	-10.2671
▁surgery	-10.2673
▁detailed	-10.2679
▁Jack	-10.2684
▁revenue	-10.2684
▁Jones	-10.2698
▁proposed	-10.2698
▁Ad	-10.2699
▁equal	-10.27
▁approximately	-10.27
▁anywhere	-10.271
▁faster	-10.2715
▁category	-10.2715
▁perspective	-10.2739
▁CO	-10.2742
▁Instead	-10.2744
▁Se	-10.2746
▁©	-10.2746
▁Earth	-10.2746
▁folks	-10.2749
▁seek	-10.2751
US	-10.2761
mon	-10.2763
oc	-10.2772
▁failure	-10.2773
▁cultural	-10.2773
▁concern	-10.2773
ou	-10.2776
▁description	-10.2779
▁boys	-10.279
▁dollars	-10.2792
▁spirit	-10.2796
▁roll	-10.2796
▁therapy	-10.2798
▁bright	-10.2803
▁locations	-10.2815
▁Little	-10.2817
▁pet	-10.2823
▁limit	-10.2827
▁maximum	-10.2831
▁introduced	-10.2834
▁Help	-10.2837
see	-10.2841
▁supported	-10.2843
ball	-10.2847
▁Phone	-10.2847
▁throw	-10.2853
▁windows	-10.286
▁obtain	-10.2867
▁List	-10.2869
▁fees	-10.2871
▁appearance	-10.2872
tion	-10.2874
▁replace	-10.2874
ot	-10.2875
▁Americans	-10.2877
!"	-10.2878
▁choices	-10.2885
▁inspired	-10.2901
▁truck	-10.2909
work	-10.2911
▁combined	-10.2915
▁plays	-10.2918
▁motion	-10.292
▁familiar	-10.2926
▁greatest	-10.2928
uck	-10.2932
▁speech	-10.2938
▁wild	-10.2943
▁processing	-10.2955
▁boat	-10.296
▁Step	-10.2966
#	-10.2973
▁theory	-10.2974
▁audio	-10.2977
▁Russian	-10.2985
▁discovered	-10.2988
▁Arts	-10.2991
▁leg	-10.2996
▁Features	-10.2997
▁bringing	-10.2997
▁Oil	-10.2998
▁aspects	-10.3002
▁Three	-10.3005
▁consumer	-10.3006
▁supposed	-10.3006
CA	-10.3006
▁Energy	-10.3006
▁Website	-10.3011
▁improved	-10.3018
▁End	-10.302
▁browser	-10.302
▁TO	-10.3022
▁distribution	-10.3022
▁Wood	-10.3024
▁Local	-10.3029
▁freedom	-10.303
▁Japanese	-10.3035
▁Still	-10.3042
ud	-10.3044
▁respond	-10.305
▁stick	-10.3055
▁secret	-10.3057
▁considering	-10.3062
▁designs	-10.3063
▁resource	-10.3075
che	-10.3077
ker	-10.308
▁league	-10.308
▁edition	-10.3082
▁executive	-10.3084
▁forced	-10.3085
▁Sale	-10.3089
▁fixed	-10.3091
▁visual	-10.3093
▁bowl	-10.3097
▁Hot	-10.3106
▁answers	-10.3113
▁teach	-10.3113
As	-10.3116
▁religious	-10.3117
▁Chief	-10.3124
▁Class	-10.3127
▁delivered	-10.3148
▁emergency	-10.3149
AP	-10.3151
▁chain	-10.3154
▁websites	-10.316
▁components	-10.3161
▁chief	-10.3166
▁massive	-10.3168
▁charges	-10.3171
▁Chi	-10.3187
▁anyway	-10.3188
▁violence	-10.3189
▁functions	-10.319
▁speaking	-10.3195
▁determined	-10.3197
▁participants	-10.3207
▁rent	-10.3213
▁cap	-10.3215
▁smooth	-10.3215
▁surprise	-10.3215
▁approved	-10.3216
▁clinical	-10.3219
▁happening	-10.3224
▁reduced	-10.3225
▁arrived	-10.3227
▁Library	-10.3228
▁apps	-10.323
▁employee	-10.3234
▁crime	-10.3235
▁efficient	-10.3235
▁Digital	-10.3236
▁twice	-10.3236
▁Australian	-10.3238
▁installation	-10.3241
▁provider	-10.3246
ny	-10.3249
▁register	-10.3252
▁contain	-10.3258
ice	-10.3263
▁App	-10.3265
▁tickets	-10.3266
▁liked	-10.3267
▁recovery	-10.3267
hu	-10.3268
▁Small	-10.3272
ki	-10.3285
▁depending	-10.3285
▁dining	-10.3288
▁agreed	-10.3289
▁examples	-10.329
▁load	-10.3293
ries	-10.3296
▁Area	-10.3297
▁updates	-10.3301
▁fabric	-10.3301
▁Te	-10.3304
ver	-10.331
ably	-10.3311
▁industrial	-10.3318
▁Jim	-10.3319
▁ID	-10.3322
▁battery	-10.3327
star	-10.3327
▁interior	-10.3327
▁Cor	-10.3329
▁causes	-10.3331
▁crisis	-10.3336
▁knowing	-10.3348
▁Fund	-10.3349
ette	-10.3352
▁mini	-10.3357
▁Boston	-10.3358
▁guest	-10.3361
tor	-10.3363
ick	-10.3368
ck	-10.3372
▁courses	-10.3377
▁crazy	-10.3377
▁Hope	-10.338
▁Join	-10.3385
▁kill	-10.3391
▁arm	-10.3391
▁Store	-10.3392
▁camp	-10.3395
▁Angeles	-10.3405
▁ring	-10.3412
▁seconds	-10.3413
▁enable	-10.3417
▁feed	-10.3422
ID	-10.3425
▁filter	-10.3427
▁Po	-10.3429
▁Royal	-10.3431
▁Main	-10.3433
bi	-10.3434
▁perfectly	-10.345
▁Second	-10.3451
▁vehicles	-10.3458
▁usual	-10.3458
▁Save	-10.3461
▁sand	-10.3463
▁Brand	-10.3464
▁Pa	-10.3466
▁obvious	-10.3469
▁electric	-10.3473
▁explained	-10.3474
▁favourite	-10.3476
▁cook	-10.3481
▁butter	-10.3483
▁tells	-10.3484
▁im	-10.3486
▁jump	-10.3488
▁picked	-10.349
▁island	-10.3502
▁cake	-10.3505
▁Wi	-10.3508
▁noted	-10.351
▁Land	-10.3513
▁earn	-10.3514
ow	-10.3518
▁launched	-10.3518
▁Spring	-10.3524
▁installed	-10.3529
▁Virginia	-10.3529
▁channel	-10.3534
▁Article	-10.3536
].	-10.3539
▁television	-10.3542
istic	-10.3543
▁officer	-10.3549
▁forces	-10.3555
▁intended	-10.3555
chi	-10.3555
▁valuable	-10.3562
▁consumers	-10.3565
▁Vi	-10.3566
jo	-10.3568
▁advertising	-10.3573
▁Festival	-10.3575
▁turns	-10.3584
▁topics	-10.3584
▁Off	-10.3585
▁Marketing	-10.3585
▁passion	-10.359
▁commitment	-10.3596
How	-10.3608
▁Ro	-10.3608
ps	-10.361
▁indeed	-10.3612
▁educational	-10.3612
▁tomorrow	-10.3613
▁Russia	-10.3617
▁closer	-10.362
▁tests	-10.3621
▁colour	-10.3621
▁visiting	-10.3622
▁route	-10.3623
▁pack	-10.3623
▁min	-10.3628
▁agent	-10.3633
▁rare	-10.3636
▁Color	-10.3637
▁cloud	-10.3641
▁clothes	-10.3642
▁carried	-10.3644
▁participate	-10.3647
▁Blog	-10.3648
ura	-10.3654
▁debate	-10.3654
set	-10.3658
▁manual	-10.3663
▁county	-10.3664
▁Federal	-10.3678
▁doors	-10.3689
▁begins	-10.369
▁cycle	-10.3691
▁output	-10.3697
▁Order	-10.3701
▁hurt	-10.3708
▁sauce	-10.3712
▁Garden	-10.3719
▁investigation	-10.3721
▁port	-10.3723
▁herself	-10.373
mar	-10.3731
▁creation	-10.3734
▁switch	-10.3735
▁Tim	-10.3745
▁affected	-10.3745
▁Author	-10.375
▁accounts	-10.3756
▁worst	-10.3757
▁shooting	-10.3757
▁identified	-10.3767
▁treated	-10.3769
▁deals	-10.3771
▁Ke	-10.3772
▁expression	-10.3773
▁enhance	-10.3775
▁database	-10.3778
▁significantly	-10.3784
top	-10.3789
▁none	-10.3794
▁Senior	-10.3797
▁youth	-10.3802
▁mis	-10.3807
hr	-10.3808
lic	-10.3808
▁Matt	-10.381
▁Middle	-10.3814
▁supporting	-10.3814
▁sorry	-10.3817
▁da	-10.3817
▁procedure	-10.3822
▁Finally	-10.3824
▁protein	-10.3824
low	-10.3825
▁noticed	-10.3825
▁Win	-10.3826
▁/><	-10.3829
▁Sha	-10.3832
▁surprised	-10.3837
▁effectively	-10.3842
▁license	-10.3854
▁Ra	-10.3854
▁Fa	-10.3855
▁emotional	-10.3859
▁planned	-10.3859
▁hundreds	-10.386
▁parent	-10.3861
▁organic	-10.3862
When	-10.3864
▁Building	-10.3865
▁remaining	-10.3867
▁Executive	-10.3868
▁Summer	-10.387
ery	-10.3888
▁dangerous	-10.389
▁Travel	-10.3892
py	-10.3899
▁na	-10.3899
▁exist	-10.3903
▁Drive	-10.3905
▁criminal	-10.3909
▁practical	-10.3918
eg	-10.3924
▁farm	-10.393
IT	-10.3932
vi	-10.3934
▁sport	-10.3937
▁flowers	-10.394
▁Sometimes	-10.3942
▁Town	-10.3942
▁silver	-10.3943
▁soul	-10.3944
▁sides	-10.3945
▁plate	-10.3952
▁Professional	-10.396
ip	-10.3962
▁lights	-10.3962
▁conduct	-10.3967
▁civil	-10.3972
ella	-10.398
▁accepted	-10.398
▁Was	-10.3985
▁sat	-10.3986
▁quiet	-10.3994
▁Italian	-10.3996
▁Asia	-10.3999
water	-10.4
▁fly	-10.4006
▁cooking	-10.401
box	-10.4012
▁registered	-10.4014
▁interests	-10.4016
▁Looking	-10.4019
ik	-10.402
fa	-10.4023
▁Box	-10.4024
▁phase	-10.4032
▁RE	-10.4035
▁fellow	-10.404
▁candidates	-10.4041
stone	-10.4046
▁revealed	-10.4048
▁Paris	-10.405
▁seriously	-10.4052
▁Mon	-10.4053
▁Comment	-10.4054
▁inches	-10.4055
▁mail	-10.4056
▁Mexico	-10.4073
▁infrastructure	-10.4075
▁purchased	-10.4076
▁affordable	-10.4079
▁Auto	-10.4082
ane	-10.4084
▁Rose	-10.4088
▁km	-10.409
So	-10.4095
▁improvement	-10.4098
▁decades	-10.4099
▁crowd	-10.4101
▁Pan	-10.4112
And	-10.4114
▁Carolina	-10.4125
▁Model	-10.4125
▁Line	-10.4133
▁retail	-10.4134
AM	-10.414
▁competitive	-10.4144
▁taught	-10.4149
▁transport	-10.4151
▁roof	-10.4151
lar	-10.4164
▁Having	-10.4165
▁NOT	-10.4166
▁restaurants	-10.4169
▁relatively	-10.4169
▁Shop	-10.4172
▁occur	-10.4173
▁presentation	-10.4176
▁incredible	-10.4178
▁constantly	-10.4179
▁entirely	-10.4181
form	-10.419
▁expertise	-10.419
▁Test	-10.4199
▁Bob	-10.4203
▁technologies	-10.4206
▁contest	-10.421
ions	-10.4211
▁campus	-10.4214
▁assessment	-10.4223
▁Training	-10.4227
▁Students	-10.4227
▁Access	-10.4236
▁comprehensive	-10.4238
▁accident	-10.4238
fi	-10.424
▁MS	-10.4245
▁interface	-10.4246
▁Professor	-10.4246
▁Daily	-10.4249
▁Visit	-10.4257
▁winner	-10.4258
▁charged	-10.426
▁yellow	-10.4271
▁Start	-10.4278
▁Andrew	-10.4278
▁cutting	-10.4288
▁transition	-10.4292
▁talent	-10.4307
▁element	-10.4309
▁shower	-10.4309
Con	-10.4314
MS	-10.4315
▁Mobile	-10.4315
▁kinds	-10.4316
▁replacement	-10.4334
rant	-10.4338
▁Card	-10.4338
ible	-10.4342
▁historical	-10.4346
▁Catholic	-10.4347
bit	-10.4349
war	-10.4349
▁Daniel	-10.4349
ara	-10.4354
▁grown	-10.4355
▁Dis	-10.4359
▁fields	-10.4362
len	-10.4365
▁Williams	-10.4369
▁represent	-10.4369
vin	-10.437
▁losing	-10.4371
▁pot	-10.4373
▁Come	-10.4373
▁signal	-10.4374
that	-10.4377
▁Ni	-10.438
▁gorgeous	-10.4381
▁vacation	-10.4385
ium	-10.4391
▁domestic	-10.4392
▁Games	-10.4393
▁layer	-10.4395
▁suitable	-10.4399
▁providers	-10.4401
ell	-10.4406
▁honest	-10.4415
▁Bio	-10.4416
▁committee	-10.4419
TS	-10.4422
▁MA	-10.4423
▁Financial	-10.4425
▁apartment	-10.4426
▁receiving	-10.4426
▁electronic	-10.4428
Pro	-10.4429
▁follows	-10.4433
▁circumstances	-10.4434
▁alcohol	-10.4438
▁Enjoy	-10.444
▁automatically	-10.4448
▁Academy	-10.4451
▁monthly	-10.4456
▁assets	-10.4457
▁defined	-10.4463
ble	-10.4463
ach	-10.4465
▁chosen	-10.4466
▁Ltd	-10.4469
▁external	-10.447
▁victory	-10.4472
bb	-10.4473
▁employment	-10.4484
▁Van	-10.4486
▁suggested	-10.4487
▁river	-10.4493
ini	-10.4494
▁EU	-10.4495
▁viagra	-10.45
▁Despite	-10.45
▁typical	-10.4504
▁resolution	-10.4509
▁Stone	-10.451
▁authority	-10.4514
▁upper	-10.4519
▁bread	-10.4521
ada	-10.4522
ran	-10.4524
▁iron	-10.4525
▁Silver	-10.4528
ged	-10.4532
▁candidate	-10.4532
▁Site	-10.4533
▁Follow	-10.4541
▁trans	-10.4542
ff	-10.4542
▁joy	-10.4549
▁matters	-10.455
▁Ed	-10.455
▁Sign	-10.4555
▁settings	-10.4558
▁native	-10.456
▁smile	-10.456
▁regularly	-10.4561
▁Pat	-10.4567
▁medicine	-10.4573
lon	-10.4574
▁forum	-10.4574
cha	-10.4575
▁Inter	-10.4576
ological	-10.4577
▁hire	-10.4581
▁submit	-10.4581
▁recorded	-10.459
▁du	-10.4598
▁shares	-10.4598
▁Yet	-10.4604
▁DC	-10.4605
▁sad	-10.4607
▁films	-10.4621
▁nearby	-10.4627
▁height	-10.4631
▁turning	-10.4634
▁reasonable	-10.4635
▁Country	-10.4647
▁agencies	-10.465
▁collect	-10.4651
▁shoot	-10.4656
▁ticket	-10.4658
▁Heart	-10.4658
▁Anti	-10.4659
▁expand	-10.4664
▁gay	-10.4669
",	-10.4669
▁issued	-10.4676
▁Ta	-10.4677
▁desk	-10.4681
▁reduction	-10.4684
▁Space	-10.4686
▁Spanish	-10.4693
▁virtual	-10.4697
▁protected	-10.4698
▁studio	-10.4699
▁brands	-10.4702
▁frequently	-10.4705
ging	-10.4707
▁engineering	-10.4712
▁exact	-10.4713
▁gear	-10.4717
▁appeal	-10.4719
▁brief	-10.4721
▁regional	-10.4722
▁dealing	-10.4722
▁efficiency	-10.4722
▁covers	-10.4728
ky	-10.4731
▁purposes	-10.4733
▁registration	-10.4735
▁argument	-10.4736
▁Should	-10.4742
▁Therefore	-10.4743
▁Film	-10.4746
▁log	-10.4749
▁moments	-10.4751
▁justice	-10.4756
si	-10.4759
▁loans	-10.4761
▁instructions	-10.4767
▁MP	-10.4767
berg	-10.4767
▁Jersey	-10.4775
▁officers	-10.4784
▁apart	-10.4785
▁hoping	-10.4785
▁rear	-10.4788
▁upcoming	-10.4792
pre	-10.4794
▁portion	-10.4796
▁inspiration	-10.48
OR	-10.4802
▁prove	-10.4804
▁Tri	-10.4804
ala	-10.4804
▁accurate	-10.4806
▁extended	-10.4807
▁border	-10.4813
▁tonight	-10.4814
▁grand	-10.4824
▁Non	-10.4824
▁citizens	-10.4826
▁rating	-10.4827
PA	-10.4829
▁entertainment	-10.4837
▁grew	-10.4839
OS	-10.4839
▁Charles	-10.484
▁younger	-10.4841
▁fighting	-10.4842
▁depth	-10.4842
ita	-10.4843
▁village	-10.4848
▁positions	-10.4849
▁Available	-10.4849
ola	-10.4851
▁Credit	-10.4855
▁manufacturing	-10.4855
▁messages	-10.4857
▁Ab	-10.4857
▁judge	-10.4857
▁DE	-10.4858
</	-10.4859
pt	-10.486
▁basically	-10.4866
▁soil	-10.4868
ming	-10.4869
▁honor	-10.4869
▁bottle	-10.487
▁foundation	-10.4872
▁PDF	-10.4873
▁reliable	-10.4878
▁drivers	-10.4884
▁Section	-10.4892
▁facing	-10.4894
▁lifestyle	-10.4894
▁Season	-10.4896
▁minor	-10.4898
▁investors	-10.49
▁Link	-10.4906
▁bio	-10.4906
ep	-10.4909
ical	-10.4917
▁Santa	-10.4925
▁identity	-10.4926
▁realized	-10.4928
list	-10.4929
▁Ryan	-10.4929
▁lay	-10.4933
ken	-10.4936
▁ST	-10.4939
▁Ohio	-10.4939
Get	-10.4941
▁Unfortunately	-10.4942
▁impressive	-10.4945
ov	-10.4945
SP	-10.4952
▁discount	-10.4967
▁obviously	-10.4968
▁Total	-10.4972
▁degrees	-10.498
▁fairly	-10.4986
ix	-10.4987
They	-10.4993
▁sick	-10.5
▁featured	-10.5
▁compare	-10.5004
related	-10.5011
▁noise	-10.5017
▁Sub	-10.502
ER	-10.5024
▁innovative	-10.5025
PS	-10.5026
▁Fair	-10.5028
▁par	-10.503
▁contrast	-10.5035
▁chapter	-10.5037
▁leather	-10.5049
▁slot	-10.5053
▁Michigan	-10.5056
▁tight	-10.5056
▁papers	-10.5056
▁taxes	-10.5059
ez	-10.5059
▁Bible	-10.506
▁lucky	-10.5061
▁planet	-10.5066
Co	-10.5068
▁Ten	-10.5072
ever	-10.5075
▁painting	-10.508
▁hang	-10.5084
iz	-10.5084
▁spoke	-10.5085
tain	-10.509
▁ends	-10.5091
▁Ja	-10.5102
▁surrounding	-10.5107
▁Way	-10.5108
▁trend	-10.5109
▁mixed	-10.5112
▁Age	-10.5112
▁thread	-10.5118
▁walls	-10.5119
▁Division	-10.512
▁Member	-10.512
▁conducted	-10.5121
▁confirmed	-10.5126
▁arms	-10.5128
▁Frank	-10.5132
▁scheduled	-10.5133
▁labor	-10.5138
▁pulled	-10.5139
▁orders	-10.5142
▁impossible	-10.5147
▁magazine	-10.5147
▁rental	-10.5149
▁Cross	-10.5149
fer	-10.515
ren	-10.5161
▁powder	-10.5161
▁bonus	-10.5169
▁kick	-10.5174
▁implementation	-10.5178
▁dad	-10.5178
▁earned	-10.5178
▁deck	-10.5181
▁institutions	-10.5186
zo	-10.5195
▁acid	-10.5198
▁Story	-10.5198
▁Though	-10.5204
SA	-10.5206
▁personally	-10.5207
▁shift	-10.5208
▁Par	-10.521
▁buildings	-10.5211
▁everyday	-10.5212
▁domain	-10.5213
PM	-10.5213
▁machines	-10.5213
▁thin	-10.5217
▁entered	-10.5218
▁guarantee	-10.5219
▁holds	-10.522
iv	-10.5226
ding	-10.5229
▁patterns	-10.523
div	-10.523
▁beer	-10.5233
▁Machine	-10.5234
▁Perhaps	-10.5234
▁extensive	-10.5235
▁Fall	-10.5235
▁logo	-10.524
long	-10.5244
▁discussed	-10.5245
▁ha	-10.5256
▁recognized	-10.5259
▁differences	-10.526
▁definition	-10.5262
class	-10.5264
▁Port	-10.5265
▁Chapter	-10.5265
▁Down	-10.5265
%)	-10.5266
▁Try	-10.5266
tz	-10.5267
▁walked	-10.527
▁Tour	-10.527
▁assume	-10.527
▁yards	-10.5273
▁teeth	-10.5273
▁profit	-10.5274
▁Stock	-10.5275
▁expectations	-10.5276
ification	-10.5276
▁Customer	-10.5276
▁scored	-10.5278
▁somewhere	-10.5281
▁remote	-10.5287
▁politics	-10.5287
▁Being	-10.5288
▁input	-10.5288
▁incident	-10.5289
▁Need	-10.5289
▁Instagram	-10.5291
ari	-10.5291
▁Such	-10.5292
▁HD	-10.5293
▁Four	-10.5295
▁exposure	-10.5298
▁reader	-10.5299
▁Sales	-10.53
AS	-10.5304
▁quote	-10.5314
▁proof	-10.5314
▁awareness	-10.5325
▁procedures	-10.5327
▁threat	-10.533
€	-10.533
▁Miss	-10.5332
▁Farm	-10.5333
▁Insurance	-10.5335
▁stands	-10.5336
▁constant	-10.5337
▁Senate	-10.5338
post	-10.5339
lu	-10.5339
▁tiny	-10.5342
▁skill	-10.5345
▁default	-10.5349
▁Italy	-10.5352
▁meetings	-10.5353
cm	-10.5355
▁mountain	-10.5358
▁engage	-10.5363
▁Experience	-10.5364
▁Thus	-10.5364
cy	-10.5367
▁owned	-10.5368
▁possibility	-10.5372
▁Kim	-10.5376
▁consistent	-10.5376
▁boost	-10.5388
gan	-10.5389
▁featuring	-10.5389
▁Collection	-10.539
▁OK	-10.5392
▁sessions	-10.5393
▁Change	-10.5396
▁Case	-10.5406
▁routine	-10.5406
▁ma	-10.5417
oo	-10.5417
▁sheet	-10.5418
▁aspect	-10.5418
▁Francisco	-10.5423
▁Through	-10.5424
▁Wa	-10.5431
▁YouTube	-10.5431
▁facts	-10.5432
mb	-10.5434
▁scientific	-10.5436
▁lighting	-10.5438
▁ease	-10.5439
▁golf	-10.5442
▁aim	-10.5443
▁slowly	-10.5452
▁kit	-10.5452
▁concrete	-10.5452
▁pure	-10.5456
▁dropped	-10.5457
ok	-10.5462
▁Engineering	-10.5462
▁murder	-10.5465
▁Point	-10.5466
▁reporting	-10.5469
▁believed	-10.5471
▁pink	-10.5472
New	-10.5472
ay	-10.5474
gy	-10.5474
ants	-10.5477
▁capable	-10.5478
<<	-10.548
▁Student	-10.5485
▁worldwide	-10.5486
▁UN	-10.5492
▁mill	-10.5492
▁SO	-10.5492
▁musical	-10.5493
▁pleasure	-10.5494
▁horse	-10.5496
▁challenging	-10.5496
▁listening	-10.55
tel	-10.5501
▁Southern	-10.5501
▁west	-10.5502
▁le	-10.5503
rate	-10.5511
▁recognize	-10.5512
▁split	-10.5513
▁draft	-10.5515
air	-10.5518
▁posting	-10.5521
▁privacy	-10.5524
▁editor	-10.5527
▁Justice	-10.5528
tal	-10.5528
▁zone	-10.5529
ph	-10.5533
▁afford	-10.5537
▁sky	-10.554
▁technique	-10.5542
▁searching	-10.5544
▁Tech	-10.5548
▁Systems	-10.5548
▁Cat	-10.555
ned	-10.5552
▁Ga	-10.5553
▁favor	-10.5556
▁payments	-10.556
▁neighborhood	-10.5561
▁Ru	-10.5561
▁Brian	-10.5567
▁Would	-10.557
▁celebrate	-10.557
▁percentage	-10.5571
SE	-10.5571
▁Software	-10.558
▁figures	-10.5583
▁Sch	-10.5584
▁comparison	-10.5586
▁situations	-10.5588
But	-10.559
▁hardware	-10.5591
▁tech	-10.5593
▁graduate	-10.5593
▁joint	-10.5596
▁Want	-10.5605
om	-10.5605
▁cookies	-10.5618
▁bo	-10.5622
ue	-10.5622
That	-10.5624
▁attorney	-10.5629
----------------	-10.5631
▁collaboration	-10.5633
▁unable	-10.5634
▁relief	-10.5635
ns	-10.5638
▁originally	-10.5643
▁normally	-10.5645
▁Max	-10.5645
▁keeps	-10.5646
▁Ken	-10.5648
ations	-10.5655
ven	-10.5658
▁Short	-10.5665
▁successfully	-10.5666
▁bunch	-10.567
▁ongoing	-10.5674
▁Trust	-10.5681
▁gender	-10.5681
sy	-10.5682
yl	-10.5682
▁Run	-10.5685
▁contemporary	-10.5687
▁banks	-10.5691
▁exclusive	-10.5702
▁Low	-10.5703
▁resistance	-10.5707
IN	-10.5708
▁writers	-10.571
▁Adam	-10.5716
▁Taylor	-10.572
▁Ireland	-10.5722
▁Products	-10.5722
▁tasks	-10.5724
▁Level	-10.5728
▁talked	-10.573
style	-10.5734
▁tip	-10.5736
▁Gar	-10.5739
▁vital	-10.5743
Be	-10.5743
▁describe	-10.5744
View	-10.5746
▁council	-10.5747
▁neck	-10.5748
▁airport	-10.5748
▁injuries	-10.575
▁Col	-10.5751
▁Hard	-10.5756
▁Has	-10.5759
▁legs	-10.5761
▁Natural	-10.5764
cent	-10.5765
▁bath	-10.5765
▁Ba	-10.5768
▁authors	-10.577
▁pa	-10.5774
▁pleased	-10.5774
▁mo	-10.5775
dis	-10.5781
▁Scholar	-10.5789
▁plot	-10.5791
▁sh	-10.58
▁foods	-10.5802
▁passing	-10.5803
▁Jackson	-10.5805
▁carefully	-10.5818
new	-10.5819
▁juice	-10.5825
▁attacks	-10.5827
▁dish	-10.5829
▁Ball	-10.5831
▁cable	-10.5834
▁Made	-10.5836
gu	-10.5836
▁solar	-10.5836
▁reflect	-10.5839
get	-10.5841
▁conflict	-10.5843
ade	-10.5846
▁somewhat	-10.5848
▁landscape	-10.5853
▁mar	-10.5854
▁operate	-10.5856
ado	-10.5863
level	-10.5868
sp	-10.5873
▁Bridge	-10.5875
Mo	-10.5879
▁engagement	-10.5881
▁appointment	-10.5884
▁Medicine	-10.5885
▁mortgage	-10.5888
▁suffer	-10.5889
isation	-10.5889
▁breath	-10.5891
▁van	-10.5896
▁Remember	-10.5899
▁Safety	-10.5901
▁carbon	-10.5903
MA	-10.5905
▁Joseph	-10.5906
hand	-10.5907
del	-10.5918
‘	-10.592
▁MD	-10.592
▁shouldn	-10.5921
right	-10.5921
ani	-10.5924
▁Image	-10.5926
▁liquid	-10.5931
▁COVID	-10.5931
▁preparation	-10.5932
▁severe	-10.5937
▁tested	-10.594
▁Colorado	-10.5945
▁evaluation	-10.5948
▁crucial	-10.5949
▁Studies	-10.5952
▁healthcare	-10.5953
▁pen	-10.5959
▁Army	-10.5961
▁researchers	-10.5962
▁supplies	-10.5963
▁Quality	-10.5964
▁hasn	-10.5965
▁Easy	-10.5965
▁stunning	-10.5967
ments	-10.5972
gate	-10.5973
▁Reading	-10.5974
▁Forum	-10.5975
▁Bi	-10.5978
▁Style	-10.5981
▁authorities	-10.5982
▁attractive	-10.5982
▁forever	-10.5983
▁returns	-10.5985
▁crew	-10.5995
▁giant	-10.6
▁Action	-10.6001
All	-10.6002
ris	-10.6002
SC	-10.6003
law	-10.6003
▁Asian	-10.6009
▁mainly	-10.6017
▁trail	-10.6018
MP	-10.6024
▁objects	-10.6025
▁magic	-10.6027
▁ordered	-10.6027
▁memories	-10.603
▁manufacturer	-10.603
▁atmosphere	-10.6032
▁struggle	-10.6032
▁Jeff	-10.6035
▁Resources	-10.6035
▁anymore	-10.6035
▁luxury	-10.6036
▁false	-10.604
▁houses	-10.6045
▁fail	-10.6047
Do	-10.6047
▁obtained	-10.6048
read	-10.6049
▁decade	-10.6052
▁Com	-10.6054
log	-10.6055
▁designer	-10.6058
▁reaction	-10.6063
▁breast	-10.607
▁Kitchen	-10.6072
▁membership	-10.6074
▁MI	-10.6076
▁opposite	-10.6079
▁Avenue	-10.608
▁weekly	-10.6086
▁Job	-10.609
▁bear	-10.61
▁Republican	-10.6103
ons	-10.6105
▁tank	-10.6115
ified	-10.6117
▁Select	-10.6121
▁ratio	-10.6123
▁dates	-10.6126
▁FREE	-10.6139
▁chose	-10.6142
▁Coast	-10.6143
▁saved	-10.6143
▁Mrs	-10.6145
▁Radio	-10.6145
▁Mill	-10.6146
▁scheme	-10.6149
▁partnership	-10.6154
▁Personal	-10.6155
▁Sky	-10.6156
▁promise	-10.6157
▁ca	-10.6158
▁wheel	-10.6158
▁suffering	-10.6158
▁Word	-10.6162
▁mg	-10.6162
▁linked	-10.6163
▁prison	-10.6164
zi	-10.6166
▁wave	-10.6167
▁laugh	-10.6178
▁Weight	-10.6181
▁legislation	-10.6185
By	-10.6186
▁generic	-10.6186
▁hundred	-10.6189
wi	-10.619
▁finance	-10.6193
▁resume	-10.6194
▁hits	-10.6195
har	-10.6198
▁Fox	-10.6202
▁bodies	-10.6202
▁label	-10.6207
De	-10.6207
▁Ti	-10.6208
ag	-10.621
▁aside	-10.6213
▁Ray	-10.6213
▁king	-10.6214
▁monitor	-10.6223
▁letters	-10.6226
▁ultimately	-10.6227
On	-10.6227
▁adventure	-10.6227
▁framework	-10.6227
▁Jewish	-10.6228
▁Study	-10.6228
▁contribute	-10.6229
▁rose	-10.6236
▁mining	-10.6239
▁reply	-10.624
og	-10.624
▁row	-10.6241
▁garage	-10.6244
▁empty	-10.6244
▁Ver	-10.626
▁regulations	-10.6262
▁component	-10.6262
▁Bur	-10.6264
▁Single	-10.6264
▁Airport	-10.6266
▁LA	-10.6267
▁extreme	-10.6267
▁bags	-10.6268
ient	-10.6269
▁era	-10.6278
▁clothing	-10.6278
▁Georgia	-10.628
IL	-10.6282
><	-10.6283
▁approval	-10.6285
▁Secretary	-10.6295
▁craft	-10.6295
▁root	-10.6296
tin	-10.6305
▁recipes	-10.6307
▁Hand	-10.6309
▁muscle	-10.6311
▁ads	-10.6313
▁programme	-10.6314
▁generate	-10.6315
▁pace	-10.6318
CC	-10.6318
▁Things	-10.6325
▁diverse	-10.6325
▁Nick	-10.6325
▁Band	-10.6326
▁guidance	-10.6327
med	-10.6328
▁categories	-10.6329
ral	-10.633
▁premium	-10.6332
▁weren	-10.6333
▁bi	-10.6334
▁deposit	-10.6338
▁Henry	-10.6338
ising	-10.6341
▁stuck	-10.6348
▁afraid	-10.6357
▁attended	-10.6357
ama	-10.6359
▁Stephen	-10.6366
ev	-10.6367
▁filed	-10.6369
▁hell	-10.6372
view	-10.6374
▁watched	-10.6391
▁lady	-10.6396
▁serves	-10.6398
▁Pay	-10.6398
▁Bush	-10.64
▁solve	-10.64
▁sa	-10.6401
▁stream	-10.6406
ST	-10.6406
▁narrow	-10.641
▁east	-10.6413
▁Cal	-10.6418
▁loving	-10.6421
par	-10.6422
▁Published	-10.6442
▁Sep	-10.6448
IA	-10.6451
▁agents	-10.6451
▁introduction	-10.6453
▁Pet	-10.6455
▁formed	-10.6456
▁closely	-10.6457
▁guitar	-10.6458
ens	-10.6459
app	-10.6459
▁informed	-10.6459
▁religion	-10.6463
▁Cap	-10.6469
▁increases	-10.647
gi	-10.6471
▁visited	-10.6474
▁OS	-10.6474
▁shots	-10.6474
▁outstanding	-10.6479
▁bridge	-10.6485
qui	-10.6487
▁Far	-10.6487
▁pp	-10.649
▁Jun	-10.6493
era	-10.6493
▁Ford	-10.6494
yn	-10.6497
▁innovation	-10.6498
▁immediate	-10.6502
Our	-10.6502
▁PS	-10.6505
▁apparently	-10.6511
▁guard	-10.6512
▁incredibly	-10.6522
▁evil	-10.6522
row	-10.6524
rin	-10.6526
▁monitoring	-10.6529
▁Living	-10.653
▁Force	-10.6535
▁Mountain	-10.6537
▁sight	-10.6539
▁storm	-10.6543
▁feelings	-10.6545
BA	-10.6546
▁urban	-10.6546
life	-10.6552
▁IP	-10.6555
▁pepper	-10.6555
du	-10.6557
▁Everyone	-10.6559
▁suggests	-10.6559
▁spiritual	-10.6559
▁Welcome	-10.6564
▁broad	-10.6567
inch	-10.6569
▁Cost	-10.657
cer	-10.6575
▁Kevin	-10.6581
▁Kingdom	-10.6586
TA	-10.6592
uch	-10.6593
▁password	-10.6594
od	-10.6595
DS	-10.66
mit	-10.66
▁Final	-10.6602
▁script	-10.6606
▁sending	-10.6611
▁hosting	-10.6612
Me	-10.6614
▁ages	-10.6625
▁savings	-10.6625
▁observed	-10.6628
▁($	-10.663
ano	-10.6631
▁duty	-10.6632
▁Us	-10.6633
▁index	-10.6637
▁expressed	-10.6638
▁Again	-10.664
▁Jay	-10.6647
▁sizes	-10.6647
▁Learning	-10.6648
▁smell	-10.6648
key	-10.6649
▁proven	-10.665
▁Title	-10.6653
▁oven	-10.6657
▁tag	-10.6658
▁victim	-10.6661
▁Queen	-10.6667
▁yard	-10.6667
▁Capital	-10.6676
cho	-10.6678
▁assistant	-10.6683
ties	-10.6686
▁proposal	-10.6687
▁lessons	-10.6687
▁Baby	-10.6689
▁faculty	-10.669
▁Prime	-10.6695
▁grant	-10.6697
▁hole	-10.6697
▁improving	-10.6698
pi	-10.67
▁Administration	-10.67
▁Dar	-10.6705
Le	-10.671
▁pounds	-10.6711
▁accessible	-10.6713
▁fitness	-10.6717
▁recommendations	-10.6719
▁SP	-10.6721
▁massage	-10.6722
▁trends	-10.6723
ple	-10.6729
▁Info	-10.6737
▁tired	-10.675
▁destination	-10.6753
▁broke	-10.6753
▁adds	-10.6757
▁Tu	-10.6761
▁talks	-10.677
An	-10.6775
▁drawing	-10.6778
▁chemical	-10.678
▁nuclear	-10.678
ual	-10.6785
nes	-10.6791
name	-10.6792
▁attached	-10.6799
▁drinking	-10.6802
▁Net	-10.6805
▁choosing	-10.6805
ica	-10.6807
▁egg	-10.681
▁SE	-10.681
▁lift	-10.6818
▁Sarah	-10.6819
▁Fort	-10.6822
▁orange	-10.6831
▁implement	-10.6831
▁PR	-10.6832
▁NC	-10.6832
▁NO	-10.6832
.....	-10.6834
▁division	-10.6834
La	-10.6836
▁peak	-10.6838
▁recording	-10.684
▁sp	-10.6841
▁Multi	-10.6844
▁po	-10.6844
▁till	-10.6847
▁blind	-10.6849
▁directed	-10.685
▁consideration	-10.685
▁Yeah	-10.6854
▁sink	-10.6857
▁Create	-10.6857
▁saving	-10.6859
▁Louis	-10.686
▁collected	-10.686
▁Hu	-10.6864
▁literally	-10.6865
rick	-10.6865
▁Square	-10.6867
▁Ph	-10.687
▁DVD	-10.6872
▁depends	-10.6874
▁arts	-10.6876
ole	-10.6877
▁necessarily	-10.6878
▁rice	-10.6879
▁establish	-10.6881
▁Computer	-10.6882
▁Camp	-10.6883
▁reputation	-10.6885
run	-10.6886
▁organized	-10.689
▁ho	-10.6892
▁Ave	-10.6893
▁FL	-10.6895
▁calendar	-10.69
▁Jul	-10.6902
▁networks	-10.6903
▁whenever	-10.6905
▁capture	-10.6906
▁Additional	-10.6907
▁Mi	-10.691
▁Pacific	-10.6911
▁Rob	-10.6911
▁Without	-10.6913
▁managing	-10.6914
▁Kit	-10.6914
▁enjoying	-10.6915
▁random	-10.6917
▁express	-10.6917
▁trained	-10.6926
▁estimated	-10.6932
▁formula	-10.6932
▁fundamental	-10.6938
▁performing	-10.6939
▁Standard	-10.6942
▁bond	-10.6943
▁Apr	-10.6946
▁Cook	-10.6946
km	-10.6949
▁blow	-10.695
▁Northern	-10.6952
▁Edition	-10.6957
▁hotels	-10.6958
are	-10.696
▁dynamic	-10.6961
▁Stay	-10.6967
▁Bell	-10.6968
▁Gas	-10.6968
▁prescription	-10.6969
“	-10.6969
▁integrated	-10.6972
some	-10.6972
▁gifts	-10.6977
▁wash	-10.6978
▁shut	-10.6979
▁festival	-10.6981
▁invited	-10.699
ath	-10.6991
▁primarily	-10.6991
▁guidelines	-10.6994
AC	-10.6994
▁Content	-10.6995
▁strange	-10.6996
uff	-10.6998
she	-10.6998
IP	-10.7003
▁raw	-10.7007
▁confident	-10.7009
▁Hey	-10.7009
▁millions	-10.7017
▁Ste	-10.7018
▁Results	-10.7019
▁Ca	-10.702
lock	-10.7021
▁Alex	-10.7026
▁suggestions	-10.7026
▁Staff	-10.7027
▁everybody	-10.7027
▁FOR	-10.7027
ign	-10.7029
▁poker	-10.703
▁risks	-10.703
▁clock	-10.7034
mann	-10.7037
▁sum	-10.7037
▁continuing	-10.704
▁achieved	-10.7041
▁extension	-10.7041
▁NFL	-10.7042
▁ocean	-10.7042
▁architecture	-10.7045
▁manufacturers	-10.7051
▁represents	-10.7054
▁Kids	-10.7059
▁ancient	-10.7062
▁ending	-10.7063
Fi	-10.7064
game	-10.7066
▁tape	-10.7072
▁Side	-10.7074
▁Jr	-10.7076
▁gotten	-10.7077
▁submitted	-10.7078
▁eggs	-10.7078
▁joining	-10.7079
▁retirement	-10.708
▁harm	-10.708
▁flavor	-10.7086
▁cabinet	-10.7089
▁Tax	-10.7091
▁tradition	-10.7092
▁transportation	-10.7092
▁streets	-10.7093
▁Holy	-10.7093
▁Estate	-10.7093
mg	-10.7096
▁Unit	-10.7101
▁acting	-10.7102
▁Zealand	-10.7102
LE	-10.7106
▁Pingback	-10.7107
▁Beautiful	-10.7114
▁Gen	-10.7116
▁explains	-10.7117
▁SC	-10.7118
▁referred	-10.7121
▁YOU	-10.7123
▁chart	-10.7135
wing	-10.7135
▁Father	-10.7147
▁Station	-10.7149
▁zero	-10.7153
▁Hair	-10.7163
▁Form	-10.7167
▁replaced	-10.7168
▁hidden	-10.7171
bury	-10.7172
ks	-10.7173
fully	-10.7173
▁Vol	-10.7173
hour	-10.7174
▁Miller	-10.7176
oh	-10.7176
▁exam	-10.7179
▁matches	-10.7179
~	-10.7183
▁invest	-10.7184
van	-10.7184
▁causing	-10.7185
▁ban	-10.7185
▁circuit	-10.7187
▁Eric	-10.7187
▁commission	-10.719
▁Sh	-10.7192
af	-10.7196
win	-10.7201
▁mm	-10.7202
▁alive	-10.7202
sis	-10.7208
▁Gallery	-10.7215
rie	-10.7222
▁portfolio	-10.7222
▁Wild	-10.7222
▁vary	-10.7223
▁resulting	-10.7223
▁thick	-10.7229
▁Cha	-10.7231
▁extent	-10.7236
▁mood	-10.7239
▁strategic	-10.7239
▁expansion	-10.7242
▁Application	-10.7244
▁wondering	-10.7246
▁valid	-10.7252
▁Paper	-10.7255
▁Mass	-10.7257
▁Ann	-10.7261
▁Wow	-10.7262
act	-10.7265
▁Challenge	-10.7272
▁Va	-10.7276
▁Awards	-10.7276
▁spray	-10.7277
▁rid	-10.7278
▁beds	-10.7281
▁escape	-10.7282
▁increasingly	-10.7282
▁intelligence	-10.7283
▁lawyer	-10.7287
▁fishing	-10.7291
▁hall	-10.7292
▁Body	-10.7293
▁Event	-10.7296
▁Property	-10.7296
▁Pe	-10.7299
▁moves	-10.73
▁flash	-10.7301
▁€	-10.7306
▁wealth	-10.7308
▁permission	-10.7309
▁ear	-10.7314
▁functional	-10.7314
▁formal	-10.7316
▁Mother	-10.7317
▁inner	-10.7319
▁debut	-10.7319
uring	-10.7325
▁expenses	-10.7328
val	-10.733
▁sustainable	-10.7332
▁Mom	-10.7334
ender	-10.7336
ob	-10.7336
▁versions	-10.734
ES	-10.734
foot	-10.7346
▁Rights	-10.7347
▁mixture	-10.7352
aw	-10.7355
▁Think	-10.7355
▁Hello	-10.7356
▁vast	-10.7357
rk	-10.7357
▁principles	-10.7358
▁neither	-10.7362
▁Miami	-10.7362
▁Child	-10.7364
▁plain	-10.7364
ash	-10.7372
▁criteria	-10.7377
ins	-10.7381
▁Davis	-10.7387
▁HP	-10.7387
pin	-10.7388
▁claimed	-10.7389
▁regardless	-10.7391
▁suddenly	-10.7392
friendly	-10.7393
cal	-10.7394
▁Houston	-10.7395
▁qualified	-10.7403
▁Email	-10.7404
lie	-10.7406
GB	-10.7407
▁occurred	-10.7411
from	-10.7411
▁Del	-10.7412
▁arrive	-10.7415
▁regard	-10.742
St	-10.7421
▁bird	-10.7421
▁everywhere	-10.7422
▁array	-10.7425
▁tall	-10.7432
▁wake	-10.7433
▁illegal	-10.7435
▁generated	-10.744
▁anxiety	-10.7444
▁preferred	-10.7447
▁potentially	-10.745
▁okay	-10.7452
▁Civil	-10.7454
▁household	-10.7456
▁grab	-10.7457
▁Quick	-10.7459
▁literature	-10.7459
ec	-10.746
▁blend	-10.7464
▁Spa	-10.7468
▁permanent	-10.7473
▁decent	-10.7478
▁admit	-10.7481
even	-10.7483
▁offense	-10.749
▁careful	-10.7502
▁belt	-10.7502
▁mirror	-10.7503
▁controlled	-10.7503
▁widely	-10.7506
▁meals	-10.7507
▁victims	-10.7521
▁refer	-10.7524
ria	-10.7524
()	-10.7525
TV	-10.7528
▁tracks	-10.7528
▁y	-10.7529
▁Dave	-10.7529
▁tap	-10.7532
▁Winter	-10.7533
▁Smart	-10.7534
▁File	-10.754
▁cart	-10.754
▁smoke	-10.754
su	-10.7549
▁Release	-10.755
▁gaming	-10.755
sch	-10.7552
▁killing	-10.7552
▁photography	-10.7553
▁union	-10.7559
▁Grant	-10.756
▁Custom	-10.7561
▁Field	-10.7563
▁attitude	-10.7564
▁professor	-10.7566
▁drama	-10.7568
▁layout	-10.7568
ami	-10.7572
▁grass	-10.7577
▁existence	-10.7585
making	-10.7589
▁Corporation	-10.7591
▁consumption	-10.7591
▁Private	-10.7594
dale	-10.7594
▁residential	-10.7594
IM	-10.7595
LY	-10.7599
cher	-10.7604
▁styles	-10.7611
▁cr	-10.7615
▁harder	-10.7617
▁AT	-10.7626
▁outcome	-10.7631
▁Trade	-10.7634
▁BA	-10.7638
▁humans	-10.764
▁AC	-10.7646
▁Britain	-10.7647
MO	-10.7647
▁mess	-10.765
qua	-10.7653
▁Books	-10.7654
▁lesson	-10.7661
▁Arizona	-10.7662
▁Money	-10.7663
▁Dark	-10.7664
▁roles	-10.7667
▁engaged	-10.7668
cap	-10.7668
▁Give	-10.7671
▁Everything	-10.7672
▁III	-10.7673
ase	-10.7678
▁stood	-10.7678
▁calm	-10.768
▁twenty	-10.7683
′′	-10.7683
▁samples	-10.7685
▁lock	-10.7685
▁Supreme	-10.7686
▁supports	-10.7687
▁reform	-10.7687
▁ME	-10.769
▁gap	-10.769
▁Annual	-10.7691
▁infection	-10.7692
▁Nice	-10.7693
▁Disney	-10.7693
table	-10.7697
▁communicate	-10.7698
▁Talk	-10.7703
▁ultimate	-10.7704
▁largely	-10.7705
je	-10.7707
▁DO	-10.7714
▁com	-10.7718
▁staying	-10.772
▁eligible	-10.7722
▁Dog	-10.7723
▁lab	-10.7723
▁objective	-10.7726
▁loves	-10.773
▁Pi	-10.7733
▁Ms	-10.7736
▁Officer	-10.7736
▁Front	-10.7739
▁priority	-10.7743
▁electrical	-10.7745
▁historic	-10.7746
gg	-10.7746
site	-10.7749
▁sharp	-10.775
part	-10.775
▁Tony	-10.7755
▁tournament	-10.7755
ther	-10.7763
▁cm	-10.7764
▁User	-10.7766
▁marked	-10.7767
▁Iran	-10.7771
▁spaces	-10.7773
▁Greek	-10.7774
tan	-10.7775
▁edit	-10.7775
▁Lady	-10.7779
▁Modern	-10.7779
how	-10.778
▁sensitive	-10.778
▁relative	-10.7781
▁Figure	-10.7788
▁personality	-10.7788
▁bid	-10.7789
nic	-10.7791
▁boot	-10.7793
tech	-10.7793
▁weapons	-10.7794
▁Bad	-10.7802
▁Min	-10.7802
link	-10.7803
▁falling	-10.7814
▁pic	-10.7815
▁doctors	-10.7817
type	-10.782
Al	-10.7824
▁heading	-10.7825
▁Spain	-10.7828
▁Text	-10.7828
this	-10.7828
ches	-10.7837
▁Harry	-10.7837
▁driven	-10.7839
▁semi	-10.784
▁checking	-10.7843
▁Round	-10.7844
▁SA	-10.7844
▁lies	-10.7845
▁printed	-10.7846
▁Mid	-10.7849
▁dollar	-10.7851
▁Know	-10.7851
▁Never	-10.7856
▁Mad	-10.7861
▁Illinois	-10.7861
▁flexible	-10.7862
ett	-10.7862
▁gallery	-10.7866
▁wanting	-10.7868
▁pocket	-10.7869
▁Analysis	-10.787
▁Cover	-10.7871
▁involves	-10.7872
ai	-10.7873
▁stretch	-10.7875
▁Irish	-10.7878
▁decrease	-10.788
▁desired	-10.7883
▁inch	-10.7887
▁Spirit	-10.7887
▁Classic	-10.7888
ena	-10.7889
▁stable	-10.7889
Ro	-10.7893
▁Golden	-10.7894
▁gonna	-10.7897
▁Assistant	-10.7897
▁hat	-10.7899
▁singles	-10.7906
▁Gi	-10.7908
IS	-10.7908
▁Toronto	-10.7914
▁Self	-10.7917
▁awards	-10.7918
▁tie	-10.7918
▁shoulder	-10.7923
▁limits	-10.7924
▁dreams	-10.7926
▁hide	-10.7928
▁utilize	-10.7928
▁tables	-10.7929
▁boxes	-10.793
zy	-10.7933
▁Las	-10.7934
▁bone	-10.7936
▁availability	-10.7938
▁LED	-10.7942
▁understood	-10.7942
▁Fe	-10.7945
▁Wilson	-10.7946
▁acts	-10.7946
▁reducing	-10.7951
▁Jason	-10.7952
▁platforms	-10.7953
▁alongside	-10.7955
▁stronger	-10.7957
▁Ask	-10.7958
▁faces	-10.7958
▁Fast	-10.7958
▁breaking	-10.7961
▁firms	-10.7961
ass	-10.7968
▁Mal	-10.7968
▁concerning	-10.7968
▁lie	-10.7988
▁Cons	-10.7989
▁occasion	-10.799
▁basketball	-10.7991
▁Meeting	-10.7992
▁concert	-10.7994
▁upgrade	-10.7994
▁removal	-10.7997
▁dust	-10.7997
▁weird	-10.7997
▁Double	-10.7998
▁Map	-10.7998
▁suspect	-10.8004
▁shops	-10.8007
▁developers	-10.8009
ious	-10.8017
▁blocks	-10.802
▁recognition	-10.8022
▁bound	-10.8024
SU	-10.8027
▁carrying	-10.8028
▁producing	-10.8028
▁Meanwhile	-10.8029
▁equivalent	-10.8029
▁involving	-10.8032
▁Girl	-10.8038
▁sentence	-10.8039
▁convenient	-10.804
▁Hollywood	-10.8041
▁SEO	-10.8043
▁channels	-10.8048
▁naturally	-10.805
▁arrested	-10.8052
▁Moon	-10.8053
▁Pen	-10.8054
▁relations	-10.8055
NA	-10.8059
▁mat	-10.8061
▁Casino	-10.8062
▁Cloud	-10.8068
▁workshop	-10.8076
▁headed	-10.8086
▁quotes	-10.8091
▁Sound	-10.8093
▁Elizabeth	-10.8095
▁Rev	-10.8099
▁oh	-10.8104
▁injured	-10.8104
▁mistake	-10.8105
▁wire	-10.8107
▁Based	-10.8108
▁Category	-10.8114
▁Practice	-10.8116
▁bars	-10.8125
▁Questions	-10.8126
▁Sal	-10.8126
▁Members	-10.8129
▁outcomes	-10.8131
▁chances	-10.8134
▁downtown	-10.8137
lee	-10.8137
CO	-10.8142
▁Ge	-10.8142
quality	-10.8143
eh	-10.8144
▁accessories	-10.8145
iff	-10.8148
▁Tree	-10.8149
▁statements	-10.8153
▁latter	-10.8154
▁requirement	-10.8155
▁Steel	-10.8158
MC	-10.8159
One	-10.8159
▁remained	-10.8162
▁Vegas	-10.8164
page	-10.8165
state	-10.8165
▁LLC	-10.8168
PC	-10.8169
▁flour	-10.8171
▁merely	-10.8172
▁poll	-10.8172
▁heads	-10.8174
▁Eastern	-10.8174
▁association	-10.8176
▁Server	-10.8178
ux	-10.8179
▁scenes	-10.818
gra	-10.8186
▁covering	-10.8187
▁extend	-10.8187
▁believes	-10.8188
▁conclusion	-10.819
▁ju	-10.819
▁structures	-10.8197
▁residence	-10.8197
▁chest	-10.82
▁wins	-10.8206
▁coast	-10.8214
▁fifth	-10.8217
▁seed	-10.8217
vis	-10.8218
home	-10.8218
▁Apply	-10.822
▁rising	-10.8221
▁Attorney	-10.8222
▁para	-10.8223
▁Additionally	-10.8224
▁seats	-10.8233
▁programming	-10.8234
▁singer	-10.8235
bin	-10.8235
▁laid	-10.8237
▁usage	-10.8238
▁pointed	-10.8249
cast	-10.8249
▁stayed	-10.8254
▁math	-10.8255
▁Mount	-10.8258
▁closing	-10.8261
▁mature	-10.8262
▁Update	-10.8266
ea	-10.8269
bound	-10.827
▁communications	-10.8272
▁Creek	-10.8273
Hi	-10.8275
ira	-10.8276
▁Performance	-10.8276
▁TX	-10.8279
▁enterprise	-10.8281
tri	-10.8284
bel	-10.8285
ric	-10.8287
▁Korea	-10.8288
▁Address	-10.8292
▁commonly	-10.8297
▁Ch	-10.83
??	-10.8301
▁strike	-10.8302
▁odd	-10.8304
ida	-10.8304
▁Cancer	-10.831
▁belief	-10.8314
▁cuts	-10.8316
pur	-10.8317
lay	-10.8319
▁healing	-10.8323
ET	-10.8328
▁brilliant	-10.8328
tu	-10.8329
▁Pass	-10.8332
▁Seattle	-10.834
▁Him	-10.8344
▁unknown	-10.8345
▁findings	-10.8345
▁capabilities	-10.8345
▁Events	-10.8352
▁decline	-10.8352
FA	-10.8354
aries	-10.8355
bs	-10.8358
She	-10.8363
▁creates	-10.8363
▁attract	-10.8366
▁sufficient	-10.8367
▁Leave	-10.8367
▁lol	-10.8373
▁Plant	-10.8375
▁Links	-10.8375
ju	-10.8375
▁Sen	-10.8375
▁vice	-10.8376
▁newly	-10.8376
ult	-10.8379
▁exhibition	-10.8379
▁hanging	-10.838
▁URL	-10.838
who	-10.8382
ify	-10.8383
▁Iraq	-10.8384
▁flying	-10.8389
▁wireless	-10.839
▁dumpster	-10.8391
▁checked	-10.8392
▁setup	-10.8399
yard	-10.8402
▁forest	-10.8404
▁principal	-10.8408
ug	-10.8412
▁iPad	-10.8414
▁baseball	-10.8415
cut	-10.8415
▁indicate	-10.8416
▁Magazine	-10.8416
▁prime	-10.8417
▁string	-10.8424
▁listing	-10.8433
▁publication	-10.8435
Ha	-10.8443
din	-10.8446
▁resort	-10.8449
oz	-10.8449
▁Kar	-10.845
▁vi	-10.8453
▁judgment	-10.8455
▁elected	-10.8456
▁Working	-10.8457
▁Wedding	-10.8468
▁Mat	-10.8468
▁complicated	-10.8473
▁characteristics	-10.8477
▁Diego	-10.8485
▁lake	-10.8486
tes	-10.8487
▁clip	-10.8488
▁initiative	-10.8488
▁encouraged	-10.8489
▁Tell	-10.849
▁certified	-10.8494
▁Agency	-10.8496
▁Following	-10.8498
▁Sweet	-10.8498
▁Singapore	-10.8501
▁entrance	-10.8502
▁repeat	-10.8502
▁AS	-10.8503
▁childhood	-10.8503
▁classroom	-10.8503
▁Sorry	-10.8504
▁Matthew	-10.8504
American	-10.8507
▁Finance	-10.8508
More	-10.851
▁approaches	-10.8511
▁Tea	-10.8512
▁handling	-10.8514
▁presents	-10.8514
▁equally	-10.8517
▁correctly	-10.8517
▁containing	-10.8519
▁drawn	-10.8524
ute	-10.8526
▁steam	-10.8527
▁ta	-10.8528
")	-10.8528
▁Turn	-10.8529
▁Industry	-10.8535
▁Print	-10.8542
ich	-10.8544
month	-10.8547
▁virus	-10.855
▁visible	-10.8557
▁Perfect	-10.8557
tr	-10.8561
▁fault	-10.8562
▁gr	-10.8563
▁consequences	-10.8565
▁Tips	-10.8567
rt	-10.8568
▁wet	-10.8569
▁marks	-10.857
▁lo	-10.8571
▁Planning	-10.8571
▁plane	-10.8572
Ex	-10.8572
▁fuck	-10.8575
▁Micro	-10.8579
▁Golf	-10.8584
▁flag	-10.8584
▁Theatre	-10.8585
▁Language	-10.8587
▁integration	-10.8591
▁ill	-10.8592
▁worried	-10.8594
▁fabulous	-10.8594
elle	-10.8596
▁awarded	-10.8597
▁Sand	-10.8597
▁warning	-10.8598
fire	-10.8601
▁dear	-10.8601
▁faced	-10.8602
▁respectively	-10.8606
dia	-10.8606
▁Jordan	-10.8608
rr	-10.861
ros	-10.861
▁industries	-10.8614
sha	-10.8617
▁USB	-10.8618
▁configuration	-10.862
uc	-10.8623
▁Editor	-10.8626
pers	-10.8628
▁inform	-10.863
▁Privacy	-10.8631
▁survive	-10.8632
▁Recent	-10.8635
▁strongly	-10.8638
▁tissue	-10.8639
▁OR	-10.8639
▁swimming	-10.864
▁Republic	-10.8643
▁conservative	-10.8649
▁interaction	-10.8655
▁mile	-10.8657
▁extract	-10.8658
▁Oregon	-10.8663
▁rural	-10.8666
high	-10.8667
▁somehow	-10.8668
▁swing	-10.8669
▁fluid	-10.867
▁minister	-10.8673
▁corn	-10.8673
▁birds	-10.8679
▁baking	-10.8687
▁connections	-10.8687
uri	-10.8687
▁salad	-10.869
▁tone	-10.8697
▁Sp	-10.8701
▁z	-10.8702
▁Ram	-10.8702
cc	-10.8702
▁Kelly	-10.8706
known	-10.8707
▁exposed	-10.8708
▁Si	-10.8708
▁define	-10.8709
▁Clean	-10.8712
▁consists	-10.8714
▁hopes	-10.8717
made	-10.8721
▁Shi	-10.8721
▁spots	-10.8725
▁Clinton	-10.8728
bu	-10.8729
Mar	-10.8733
▁subjects	-10.8734
▁stupid	-10.8735
▁Express	-10.8736
▁Dallas	-10.8736
▁returning	-10.8742
play	-10.8742
▁sin	-10.8744
ero	-10.8745
▁Forest	-10.8746
▁shirt	-10.8753
▁Vice	-10.8753
▁pregnancy	-10.8754
lam	-10.8754
▁Saint	-10.8755
▁Limited	-10.8761
▁actor	-10.8761
LA	-10.8762
▁treatments	-10.8764
▁regions	-10.8769
▁bra	-10.8774
▁loop	-10.8774
bed	-10.8776
▁amounts	-10.8779
▁Studio	-10.8779
cat	-10.8779
▁weak	-10.878
▁prize	-10.8782
▁flower	-10.8788
▁blame	-10.879
▁Med	-10.8792
▁granted	-10.8792
ct	-10.8792
aka	-10.8792
▁filling	-10.8794
▁cotton	-10.8795
▁pregnant	-10.8798
▁coal	-10.8798
▁specialist	-10.8799
▁laptop	-10.88
▁combat	-10.88
▁Among	-10.8802
▁Ash	-10.8806
ib	-10.881
▁carpet	-10.8811
▁crash	-10.8813
ski	-10.8813
▁Five	-10.8813
▁Ocean	-10.8813
▁Overall	-10.8815
▁employer	-10.8817
▁ladies	-10.8819
RE	-10.8822
▁Roman	-10.8823
AL	-10.8833
▁seeds	-10.8833
ction	-10.8843
▁managers	-10.8844
▁entering	-10.8845
▁finger	-10.8845
▁persons	-10.8847
itis	-10.8848
▁stored	-10.8853
▁ok	-10.8853
▁ceremony	-10.8854
▁Lewis	-10.8856
▁examination	-10.8857
▁journal	-10.886
▁equipped	-10.886
▁venture	-10.8861
▁scientists	-10.8864
▁relation	-10.8867
▁}	-10.8867
▁excess	-10.8868
▁Memorial	-10.8869
▁requests	-10.8869
▁Boy	-10.8869
▁Sex	-10.8875
▁Ron	-10.8876
Un	-10.8877
EL	-10.8881
▁enforcement	-10.8881
▁Austin	-10.8885
▁tied	-10.8886
▁Future	-10.889
ters	-10.8891
▁newspaper	-10.8891
▁booking	-10.8891
az	-10.8892
▁titles	-10.8894
▁cho	-10.8895
▁defensive	-10.8896
▁traveling	-10.8897
▁em	-10.8898
▁riding	-10.8902
ius	-10.8904
▁representative	-10.8906
▁Village	-10.8906
▁Course	-10.8906
▁Writing	-10.8907
mark	-10.891
▁initially	-10.891
▁fake	-10.8911
▁shock	-10.8914
▁DNA	-10.8916
nch	-10.8916
▁illness	-10.892
TH	-10.892
▁colleagues	-10.8921
▁pride	-10.8921
▁prayer	-10.8923
▁column	-10.8925
▁Anyway	-10.8929
▁knee	-10.8932
▁behalf	-10.8933
▁porn	-10.8934
▁compliance	-10.8934
▁Ku	-10.8934
▁controls	-10.8934
AT	-10.8938
▁depend	-10.894
▁behaviour	-10.894
PO	-10.8943
▁founded	-10.8945
▁grateful	-10.8945
▁dont	-10.8953
HS	-10.8955
▁Kansas	-10.8955
▁Chair	-10.8956
▁Friends	-10.8962
cing	-10.8962
RC	-10.8964
▁loose	-10.8966
PL	-10.8967
▁Bre	-10.8967
▁delay	-10.8969
▁arrival	-10.8976
▁conversion	-10.898
▁pandemic	-10.8982
▁pie	-10.8984
▁scores	-10.8984
▁compete	-10.8986
▁Pack	-10.8986
▁letting	-10.8986
▁greatly	-10.8991
▁Pick	-10.8994
▁tracking	-10.8994
fish	-10.8995
gin	-10.8996
▁drain	-10.8998
▁Minnesota	-10.9
▁LOVE	-10.9003
▁secondary	-10.9005
▁tube	-10.9006
▁(@	-10.9007
▁mu	-10.9009
▁//	-10.901
▁pitch	-10.9012
▁Getting	-10.9015
ight	-10.9015
▁shit	-10.9015
▁wa	-10.9017
just	-10.9019
▁Ya	-10.9019
▁Cool	-10.902
▁Nor	-10.9023
▁nose	-10.9025
▁Fun	-10.9026
▁raising	-10.9028
▁drinks	-10.9029
?!	-10.9042
including	-10.9042
▁moral	-10.9043
▁MO	-10.9046
▁composition	-10.9046
fe	-10.9046
▁suffered	-10.9048
▁applying	-10.905
▁wooden	-10.9051
ona	-10.9054
▁factory	-10.9056
▁gained	-10.9059
care	-10.9061
yan	-10.9063
▁founder	-10.9064
▁Judge	-10.9065
▁writes	-10.9074
▁Latin	-10.9074
▁Democratic	-10.9075
▁Nothing	-10.908
▁thousand	-10.9081
▁lemon	-10.9081
cus	-10.9083
▁Mini	-10.9084
▁highlight	-10.9084
▁vintage	-10.9087
▁scope	-10.9089
▁hosted	-10.9091
▁absolute	-10.9091
▁god	-10.9094
▁diseases	-10.9098
TE	-10.9101
▁Donald	-10.9102
▁Large	-10.9103
▁Clark	-10.9103
▁heating	-10.9104
▁succeed	-10.9104
▁pump	-10.9105
ii	-10.9108
▁improvements	-10.9109
▁superior	-10.9111
▁essentially	-10.9113
wan	-10.9115
illa	-10.9117
▁transaction	-10.9118
BR	-10.9118
ose	-10.9119
▁maintaining	-10.912
▁tab	-10.9124
▁Comp	-10.9126
▁electricity	-10.913
▁pricing	-10.9137
ula	-10.9142
CE	-10.9142
▁Bra	-10.9142
▁contribution	-10.9143
▁army	-10.9143
▁lifetime	-10.9146
▁hi	-10.9146
DC	-10.9147
▁deeply	-10.9147
▁Atlanta	-10.9152
▁consultation	-10.9154
▁exists	-10.9155
▁statistics	-10.9156
▁template	-10.9157
▁ni	-10.9158
▁personnel	-10.9164
▁Cut	-10.9165
▁Glass	-10.9165
▁Fri	-10.9165
▁preparing	-10.9167
▁Early	-10.917
▁somebody	-10.9171
▁translation	-10.9173
▁Allen	-10.9175
▁volunteers	-10.9177
▁medication	-10.9177
card	-10.9177
▁Much	-10.9178
▁Jean	-10.9178
▁spa	-10.9178
▁sc	-10.9181
▁Che	-10.9183
▁Tra	-10.9185
▁bills	-10.9186
▁phones	-10.9187
Ra	-10.9189
▁guilty	-10.9189
▁hook	-10.9191
▁offensive	-10.9192
▁segment	-10.9194
▁buyers	-10.9195
GA	-10.9196
▁opinions	-10.92
▁diversity	-10.9207
▁elegant	-10.9207
gle	-10.9208
▁farmers	-10.9215
▁participation	-10.9216
▁Creative	-10.9219
▁Solutions	-10.9221
▁Choose	-10.9222
▁Sept	-10.923
▁Ze	-10.9232
▁depression	-10.9235
▁Kong	-10.9242
away	-10.9242
▁Columbia	-10.9242
▁Complete	-10.9249
▁ka	-10.9259
▁exit	-10.9261
▁eliminate	-10.9261
▁defeat	-10.9264
▁Bowl	-10.9269
▁sections	-10.9271
iness	-10.9275
▁agenda	-10.9278
▁acquisition	-10.9281
▁instant	-10.9283
▁Sat	-10.9286
▁terrible	-10.9287
▁Updated	-10.929
▁Common	-10.9293
▁olive	-10.9298
▁insight	-10.93
▁dishes	-10.9303
▁Abstract	-10.9307
▁Value	-10.9311
▁Inn	-10.9311
▁moon	-10.9312
▁rely	-10.9312
▁Rep	-10.9314
▁boss	-10.9315
▁Due	-10.9317
▁represented	-10.9318
▁poly	-10.9319
▁Op	-10.932
▁reveal	-10.9322
▁Terms	-10.9326
boy	-10.9326
▁gathering	-10.9327
CS	-10.9327
▁Stop	-10.933
Go	-10.9331
▁Construction	-10.9331
▁VA	-10.9333
TC	-10.9336
▁hadn	-10.9336
▁adjust	-10.9336
▁diabetes	-10.9337
▁Nu	-10.9338
▁Too	-10.9338
▁GA	-10.9338
▁talented	-10.934
▁Really	-10.9342
▁branch	-10.9345
▁pin	-10.9346
world	-10.9347
▁vegetables	-10.9348
▁Mel	-10.9349
▁uk	-10.9352
sk	-10.9355
pp	-10.9365
▁Prince	-10.9368
▁Pennsylvania	-10.9368
▁opposed	-10.9374
▁Fi	-10.9375
▁Patrick	-10.9375
▁requested	-10.9383
▁Pakistan	-10.9384
▁Protection	-10.9384
▁forth	-10.9388
▁solo	-10.9389
▁dose	-10.939
▁reception	-10.939
▁responses	-10.9391
▁Had	-10.9391
▁opposition	-10.9393
▁Hotels	-10.9398
▁transmission	-10.9406
▁Anderson	-10.9406
▁rapidly	-10.9407
▁experiment	-10.9409
ston	-10.941
▁compensation	-10.9415
oon	-10.9415
▁acquire	-10.9417
via	-10.9417
ika	-10.9418
CK	-10.9419
▁highlights	-10.942
▁Making	-10.942
▁aircraft	-10.9422
▁Economic	-10.9426
▁explanation	-10.9427
▁attempts	-10.9429
▁offices	-10.943
▁recall	-10.943
rich	-10.9435
Score	-10.9439
▁summary	-10.944
▁signing	-10.9443
▁asset	-10.9443
▁demands	-10.9445
▁Em	-10.9447
▁sought	-10.9448
RP	-10.9451
▁Er	-10.9455
▁emotions	-10.9461
▁USD	-10.9461
▁Technical	-10.9464
▁screening	-10.9465
AR	-10.9465
▁ski	-10.9466
lia	-10.9469
school	-10.9474
▁Yu	-10.9476
▁voters	-10.9484
▁Meet	-10.9484
[/	-10.9485
▁occurs	-10.9486
▁Scotland	-10.9487
▁relax	-10.9487
lum	-10.9489
▁patch	-10.9495
▁celebration	-10.9501
▁yoga	-10.951
bre	-10.9511
EE	-10.9511
▁possession	-10.9513
▁sing	-10.9517
▁versus	-10.9519
▁Could	-10.9519
▁contributions	-10.9522
▁Anna	-10.9523
▁goods	-10.9525
▁purchasing	-10.9525
▁enables	-10.9526
▁sequence	-10.953
▁Moreover	-10.953
ele	-10.9532
▁exception	-10.9532
▁wise	-10.9533
▁Close	-10.9535
▁Pop	-10.9536
▁twist	-10.9537
cro	-10.9538
▁studying	-10.9539
ups	-10.9539
▁indicated	-10.9541
▁formation	-10.9547
▁concepts	-10.9548
vy	-10.9549
▁frequency	-10.9552
▁WA	-10.9553
▁Images	-10.9553
▁Trans	-10.9554
▁hopefully	-10.9555
▁Girls	-10.9556
▁tons	-10.9559
▁franchise	-10.9561
▁gym	-10.9564
▁bug	-10.9565
▁Wisconsin	-10.9567
▁Philadelphia	-10.9567
▁Environmental	-10.957
tom	-10.957
▁garlic	-10.957
▁packed	-10.9574
▁Sir	-10.9575
▁Wind	-10.9578
EN	-10.9579
▁Dean	-10.9579
▁struggling	-10.9579
▁Major	-10.958
vers	-10.9581
▁whilst	-10.9586
week	-10.9586
face	-10.9587
▁studied	-10.9589
▁adopted	-10.959
▁anniversary	-10.9592
▁entitled	-10.9592
▁protest	-10.9593
▁holidays	-10.9595
ude	-10.9599
▁Continue	-10.9599
▁certification	-10.9602
▁rarely	-10.9604
▁Ring	-10.9607
▁Ross	-10.961
▁Below	-10.9611
ram	-10.9615
▁imp	-10.9616
▁displayed	-10.9616
▁cups	-10.9616
▁Snow	-10.9619
▁jail	-10.9619
▁volunteer	-10.9621
▁assigned	-10.9624
▁Oak	-10.9624
▁Remove	-10.9624
▁Simon	-10.9627
▁Iron	-10.9629
▁championship	-10.9631
▁liberal	-10.9631
▁arrest	-10.9639
▁rough	-10.9641
round	-10.9642
▁romantic	-10.9642
▁resident	-10.9643
date	-10.9645
▁Death	-10.9646
▁printing	-10.9647
▁dental	-10.9648
rated	-10.9649
av	-10.9654
▁circle	-10.9658
▁Democrats	-10.9658
▁lets	-10.9659
Man	-10.966
▁Ki	-10.9663
▁del	-10.9667
▁Shipping	-10.9671
▁accused	-10.9676
vent	-10.9676
▁museum	-10.9676
▁lists	-10.9676
▁Bag	-10.9677
▁Bro	-10.9679
▁impressed	-10.9682
ock	-10.9682
▁Better	-10.9684
▁Roll	-10.9689
▁introduce	-10.9691
mont	-10.9691
▁Sport	-10.9692
▁Exchange	-10.9695
TO	-10.9696
▁container	-10.9697
▁Send	-10.9698
▁ought	-10.97
▁Bu	-10.9701
▁Hong	-10.9702
▁Ri	-10.9702
▁unusual	-10.9705
?)	-10.9706
▁chairs	-10.971
wear	-10.971
tle	-10.9715
sky	-10.9718
▁demonstrate	-10.9718
▁Mission	-10.9719
▁toilet	-10.9719
▁gene	-10.9725
▁attending	-10.9726
▁addresses	-10.9726
▁Doctor	-10.9726
▁narrative	-10.9727
▁Victoria	-10.9733
▁telephone	-10.9734
▁assess	-10.9736
▁settlement	-10.974
▁pizza	-10.974
▁pilot	-10.974
▁Sydney	-10.9741
▁trailer	-10.9743
▁deeper	-10.9743
▁Current	-10.9744
▁mistakes	-10.9747
▁chronic	-10.9748
▁worship	-10.975
▁passage	-10.9751
▁essays	-10.9751
▁Tags	-10.9751
▁outfit	-10.9752
▁Rs	-10.9753
▁Regional	-10.9753
▁suppliers	-10.9754
code	-10.9755
▁convert	-10.9756
yo	-10.9756
AA	-10.976
▁fingers	-10.976
▁tail	-10.9765
At	-10.9766
▁golden	-10.9766
cl	-10.9768
▁tackle	-10.977
ians	-10.9771
▁falls	-10.9772
▁backup	-10.9775
▁subscription	-10.9776
▁ft	-10.9783
▁NA	-10.9786
▁Nature	-10.9787
oma	-10.9787
▁ON	-10.9788
burn	-10.9788
▁rail	-10.9789
eb	-10.979
▁Marine	-10.979
▁import	-10.9793
▁el	-10.9795
▁racing	-10.9797
▁burn	-10.9797
▁Samsung	-10.9801
▁Photos	-10.9806
ture	-10.9807
▁surely	-10.9813
▁Orange	-10.9814
▁danger	-10.9814
▁promotion	-10.9815
las	-10.9815
▁substantial	-10.9815
ub	-10.9815
▁Iowa	-10.9817
▁fewer	-10.9817
▁pushed	-10.9817
▁principle	-10.9819
ei	-10.982
▁Za	-10.9823
▁Years	-10.9829
▁Dead	-10.9832
MB	-10.9832
▁fi	-10.9838
▁provision	-10.9842
EC	-10.9843
▁flu	-10.9843
▁temporary	-10.9843
▁Son	-10.9846
what	-10.9849
▁signature	-10.9849
▁scan	-10.985
▁announce	-10.9857
▁errors	-10.9861
eng	-10.9862
▁centers	-10.9863
▁southern	-10.9864
ack	-10.9865
Oh	-10.9865
▁singing	-10.987
▁reaching	-10.987
▁admitted	-10.9871
▁minimal	-10.9872
▁fraud	-10.9874
▁junior	-10.9877
nu	-10.988
▁struck	-10.9881
▁focusing	-10.9883
▁AI	-10.9883
▁Kate	-10.9883
▁ensuring	-10.9883
▁uniform	-10.9884
▁trips	-10.9885
▁certificate	-10.9886
▁western	-10.9886
▁emails	-10.989
▁PO	-10.9891
▁ALL	-10.9891
▁Dress	-10.9892
▁lowest	-10.9894
▁Electric	-10.9895
▁casual	-10.9897
▁Enter	-10.9898
▁packages	-10.9902
▁Lin	-10.9904
▁tri	-10.9906
▁Channel	-10.9907
▁venue	-10.9909
ye	-10.9913
▁Ministry	-10.9913
▁WordPress	-10.9916
IC	-10.9917
tag	-10.9918
▁Wine	-10.9919
space	-10.9923
▁genetic	-10.9924
▁Jane	-10.9927
ition	-10.9931
AD	-10.9932
OL	-10.9933
▁Legal	-10.9935
ima	-10.9942
▁bold	-10.9943
▁Rating	-10.9946
▁intense	-10.9948
▁Face	-10.9948
ale	-10.9961
ets	-10.9963
▁combine	-10.9963
▁currency	-10.9968
Free	-10.9969
▁rack	-10.9969
▁Dream	-10.997
▁confirm	-10.997
▁institution	-10.9972
▁Version	-10.9972
▁rapid	-10.9972
▁Third	-10.9973
lt	-10.9975
▁coat	-10.9975
▁dive	-10.9984
▁Pin	-10.9988
▁consent	-10.999
▁employed	-10.9993
▁votes	-10.9994
▁Den	-10.9995
▁Further	-10.9995
▁Trail	-10.9999
▁slip	-11
▁Furthermore	-11
▁mono	-11
bra	-11
▁Turkey	-11.0003
pl	-11.0011
▁grace	-11.0015
▁soup	-11.0016
▁Sure	-11.0017
▁Cho	-11.0019
▁satisfied	-11.0019
▁fence	-11.0022
▁languages	-11.0022
▁apple	-11.0023
▁curious	-11.0023
▁acquired	-11.0025
▁Pra	-11.0026
▁genuine	-11.0027
▁fiction	-11.0028
▁shelter	-11.0034
▁makeup	-11.0035
▁automatic	-11.0035
▁hitting	-11.0038
▁Reply	-11.0038
▁maintained	-11.0039
▁smoking	-11.0042
▁loud	-11.0042
▁Eye	-11.0045
▁trick	-11.0047
▁reserved	-11.0047
▁universe	-11.0049
▁Yo	-11.0051
minute	-11.0055
▁implemented	-11.0056
▁satisfaction	-11.0059
▁hyper	-11.006
▁Race	-11.0061
▁speakers	-11.0061
▁describes	-11.0062
▁colours	-11.0064
▁DJ	-11.0066
▁beneficial	-11.0066
▁desktop	-11.0066
▁Advanced	-11.007
▁lease	-11.007
ld	-11.0079
▁graphics	-11.008
▁Linux	-11.0081
▁codes	-11.0083
▁witness	-11.0085
▁nervous	-11.0086
▁announcement	-11.0087
test	-11.0087
dic	-11.009
▁stroke	-11.0093
▁supplement	-11.0094
▁promoting	-11.0096
▁Posts	-11.0098
▁honey	-11.01
▁Ever	-11.0102
▁Manchester	-11.0103
▁stages	-11.0105
dom	-11.0107
▁organisation	-11.0112
▁broadcast	-11.0112
▁heavily	-11.0113
▁fe	-11.0113
IE	-11.0114
▁Ok	-11.0115
▁yeah	-11.0115
▁trash	-11.0115
▁HR	-11.0118
▁Ci	-11.0119
▁hip	-11.012
▁developer	-11.0121
▁CBD	-11.0122
▁argue	-11.0123
▁ceiling	-11.0127
▁decor	-11.013
▁viewing	-11.0137
PE	-11.0139
wide	-11.0142
▁Anthony	-11.0144
▁speaker	-11.0146
▁Write	-11.0146
dal	-11.0148
▁betting	-11.015
▁pray	-11.0153
put	-11.0156
▁proved	-11.0157
Com	-11.0158
▁sexy	-11.0159
▁hero	-11.016
▁Mind	-11.016
▁Crusher	-11.0162
place	-11.0162
▁Cash	-11.0162
▁nursing	-11.0163
▁naked	-11.0174
▁responded	-11.0174
▁grey	-11.0175
▁Drug	-11.0183
▁contracts	-11.0185
▁encounter	-11.0185
▁CT	-11.0188
▁brush	-11.0188
▁establishment	-11.0189
▁computers	-11.019
▁cialis	-11.019
▁Used	-11.019
▁Direct	-11.0191
roll	-11.0191
▁interactive	-11.0193
▁spin	-11.0199
eo	-11.0203
ening	-11.0203
ily	-11.0204
▁exceptional	-11.0205
▁IS	-11.0206
▁functionality	-11.0206
▁tension	-11.0209
kar	-11.0211
▁losses	-11.0212
▁scoring	-11.0213
▁impression	-11.0217
▁plug	-11.022
▁voting	-11.0224
________________	-11.0225
▁Jon	-11.0226
▁Ali	-11.0226
kan	-11.0227
Car	-11.0232
yr	-11.0234
▁hardly	-11.0235
▁passionate	-11.0236
▁deserve	-11.0238
▁seasons	-11.0238
CI	-11.0241
▁ya	-11.0241
▁Several	-11.0242
▁mask	-11.0244
▁jewelry	-11.0245
▁Rd	-11.0246
▁passes	-11.0246
▁Summary	-11.0253
▁roads	-11.0253
▁stability	-11.0255
▁gather	-11.0256
ku	-11.0256
▁babies	-11.0262
▁lens	-11.0263
▁evaluate	-11.0266
▁focuses	-11.0267
scale	-11.0268
▁Return	-11.0269
▁emphasis	-11.0271
▁participating	-11.0275
▁Magic	-11.0276
▁investments	-11.0277
▁dual	-11.0279
▁str	-11.0282
▁directions	-11.0282
▁Track	-11.0283
▁Val	-11.0286
▁origin	-11.0287
▁Consider	-11.0288
▁boots	-11.029
▁sleeping	-11.029
▁API	-11.0296
▁voted	-11.0297
ators	-11.0298
▁toys	-11.0298
▁def	-11.03
▁shade	-11.03
IR	-11.0307
shi	-11.031
SI	-11.0311
NC	-11.0312
▁engaging	-11.0313
▁answered	-11.0313
▁stations	-11.0314
ister	-11.0319
▁conventional	-11.032
▁Secret	-11.0324
▁elsewhere	-11.0324
▁Bed	-11.0325
▁Bal	-11.0326
▁Ve	-11.0328
▁Views	-11.0329
▁transformation	-11.033
▁Fla	-11.0334
▁commit	-11.0334
▁McC	-11.0337
▁pit	-11.0339
nar	-11.0341
craft	-11.0342
▁recover	-11.0345
▁Safe	-11.0347
▁Latest	-11.0348
▁Basic	-11.0348
aki	-11.0349
▁bench	-11.0349
With	-11.035
▁nobody	-11.0354
▁interact	-11.0354
▁Log	-11.0355
ans	-11.0355
.<	-11.0356
▁workplace	-11.0356
▁nights	-11.0357
▁appointed	-11.0357
▁philosophy	-11.0358
▁Currently	-11.036
▁soldiers	-11.0361
ox	-11.0362
▁ignore	-11.0365
hal	-11.0369
mat	-11.0371
▁ch	-11.0377
▁difficulty	-11.0379
▁accounting	-11.038
▁estimate	-11.0381
▁Dating	-11.0385
▁shell	-11.0385
▁Equipment	-11.0385
▁completion	-11.0385
▁salary	-11.0389
▁measured	-11.0392
▁BC	-11.0397
▁Metal	-11.0402
tar	-11.0403
▁Halloween	-11.0405
▁BE	-11.0408
▁elections	-11.0411
▁fits	-11.0411
▁Coach	-11.0414
▁enemy	-11.0417
▁scenario	-11.0423
FT	-11.0425
▁northern	-11.0427
gal	-11.0428
▁producer	-11.0434
▁officially	-11.0437
▁angry	-11.0438
▁AD	-11.0438
▁bass	-11.0439
▁divided	-11.044
▁aims	-11.0445
▁Given	-11.0449
een	-11.0452
▁climb	-11.0452
▁Lane	-11.0455
Ma	-11.0457
▁Process	-11.0457
▁painted	-11.0458
▁blogs	-11.0458
▁icon	-11.0459
▁Morgan	-11.046
▁Put	-11.0461
▁Introduction	-11.0465
▁overnight	-11.0469
▁picking	-11.0473
▁Lead	-11.0475
▁AP	-11.0475
▁contained	-11.0476
tte	-11.0479
▁stomach	-11.0479
verse	-11.0481
▁hike	-11.0485
▁Ju	-11.0487
▁pursue	-11.0487
real	-11.0489
▁Fashion	-11.049
▁Question	-11.0491
▁jam	-11.0493
hen	-11.0497
▁permit	-11.0502
▁Gu	-11.0502
elli	-11.0506
▁earnings	-11.051
▁Governor	-11.0511
▁coaching	-11.0512
▁Republicans	-11.0513
▁gambling	-11.0525
▁roots	-11.0525
▁disaster	-11.0526
▁slots	-11.0527
▁absence	-11.0528
▁Audio	-11.0531
▁strip	-11.0532
▁Resort	-11.0532
▁graphic	-11.0533
mel	-11.0535
▁Ice	-11.0535
▁Carl	-11.0536
▁applicable	-11.0539
▁Profile	-11.054
▁Six	-11.054
▁accomplish	-11.0541
▁editing	-11.0541
des	-11.0542
▁targeted	-11.0543
▁flexibility	-11.0546
▁copyright	-11.0546
▁Original	-11.0548
▁penalty	-11.0549
▁Lock	-11.055
▁Mail	-11.0552
▁Fan	-11.0552
▁Tan	-11.0553
▁spare	-11.0553
▁Excellent	-11.0553
ati	-11.0554
▁Fat	-11.0558
▁viewed	-11.0558
▁Rick	-11.0559
ison	-11.0561
vel	-11.0562
▁bet	-11.0562
LS	-11.0566
▁Ban	-11.0569
▁Susan	-11.0571
▁Blood	-11.0573
zer	-11.0573
▁burden	-11.0574
▁champion	-11.0576
▁appreciated	-11.0576
▁mechanism	-11.0576
gram	-11.0583
▁meets	-11.0585
▁Muslim	-11.0585
CP	-11.0586
▁module	-11.0586
lip	-11.059
▁disc	-11.0592
▁podcast	-11.0595
▁Hills	-11.0596
▁divorce	-11.0598
size	-11.0598
▁Walk	-11.06
▁Ontario	-11.0602
▁trigger	-11.0602
▁Always	-11.0605
▁ver	-11.0605
▁regards	-11.0607
▁utility	-11.0609
▁alert	-11.061
▁charity	-11.0613
▁photographs	-11.0616
▁equity	-11.0616
▁Cam	-11.0618
▁thesis	-11.0625
mor	-11.0628
SS	-11.0629
▁Phil	-11.0633
▁substance	-11.0634
▁Football	-11.0634
▁su	-11.0637
▁addressed	-11.0639
▁Simple	-11.0643
▁restrictions	-11.0646
ore	-11.0649
▁Item	-11.065
▁interviews	-11.0654
▁rolling	-11.0654
▁involve	-11.0655
▁seal	-11.0656
See	-11.0661
▁Mer	-11.0664
▁asks	-11.0666
!!!!	-11.0673
▁disorder	-11.0674
▁ne	-11.0675
Up	-11.0676
▁quantity	-11.0676
hy	-11.0677
▁Peace	-11.0677
▁cry	-11.0677
▁Rich	-11.0679
▁BBC	-11.068
▁Publisher	-11.0682
▁creativity	-11.0683
▁Floor	-11.0687
▁inspire	-11.0687
▁Moore	-11.0689
they	-11.0691
▁newsletter	-11.0694
▁Euro	-11.0695
▁retain	-11.0695
born	-11.0697
▁mad	-11.0697
UN	-11.07
▁overcome	-11.0702
▁jaw	-11.0704
▁Notes	-11.0711
▁Delivery	-11.0712
▁distinct	-11.0716
hill	-11.0717
▁Cu	-11.0719
▁damaged	-11.0722
▁True	-11.0722
▁differ	-11.0723
▁Movie	-11.0724
ory	-11.0724
▁teen	-11.0726
▁Engine	-11.0731
=""	-11.0733
▁consistently	-11.0734
RA	-11.0735
▁distributed	-11.0736
och	-11.0738
▁interpretation	-11.0739
▁laser	-11.074
RO	-11.0741
service	-11.0741
▁Greg	-11.0745
▁barely	-11.0746
▁discussions	-11.0749
▁diagnosis	-11.0751
TER	-11.0753
▁sqft	-11.0755
▁Indiana	-11.0758
▁survival	-11.0758
▁Enterprise	-11.0759
person	-11.076
ME	-11.0764
zen	-11.0765
▁Speed	-11.0765
▁Dear	-11.0766
▁whereas	-11.077
▁assault	-11.0771
hood	-11.0774
▁amongst	-11.0776
▁enabled	-11.0782
▁emerging	-11.0784
▁Sciences	-11.0785
▁heaven	-11.0786
▁Brazil	-11.0787
Po	-11.0787
▁continuous	-11.0793
▁evolution	-11.0794
▁alarm	-11.0797
▁pills	-11.0798
▁transactions	-11.0799
▁Commercial	-11.0801
hole	-11.0801
▁Ideas	-11.0803
▁examine	-11.0805
▁destroy	-11.0808
▁Deep	-11.0809
FC	-11.081
▁Israeli	-11.0811
▁Dragon	-11.0812
▁crack	-11.0812
edit	-11.0817
▁clubs	-11.0817
▁Mis	-11.0821
Why	-11.0824
▁breaks	-11.0826
▁je	-11.0826
▁invention	-11.0827
▁audit	-11.0829
▁holes	-11.083
▁panels	-11.0833
▁width	-11.0839
▁frequent	-11.0841
▁Grade	-11.0842
▁angle	-11.0844
gon	-11.0848
▁Bon	-11.0851
▁cur	-11.0851
▁replied	-11.0852
▁Jobs	-11.0861
▁opt	-11.0862
▁wishes	-11.0862
▁importantly	-11.0863
cin	-11.0863
▁Youth	-11.0865
▁convenience	-11.0867
▁safely	-11.0868
maker	-11.0868
▁Restaurant	-11.0873
ith	-11.0874
▁Ham	-11.0875
▁nations	-11.0877
▁hiring	-11.0878
▁experiencing	-11.0881
▁precious	-11.0882
▁grip	-11.0883
▁Chat	-11.0885
non	-11.0886
ata	-11.0886
▁bands	-11.0886
▁Vo	-11.0887
▁Entertainment	-11.0888
▁Anyone	-11.0891
▁Gal	-11.0891
▁Tre	-11.0892
▁abilities	-11.0892
▁exploring	-11.0892
▁opens	-11.0896
ls	-11.0897
▁Index	-11.0897
▁dialogue	-11.0903
▁Fresh	-11.0904
▁CC	-11.0906
▁friendship	-11.0906
▁layers	-11.0909
▁brothers	-11.0909
▁enhancement	-11.0915
▁Lincoln	-11.0916
▁rescue	-11.0917
▁iOS	-11.0918
▁temperatures	-11.0919
▁pushing	-11.0922
▁Salt	-11.0922
▁regulation	-11.0925
▁joke	-11.0926
▁Account	-11.0928
zu	-11.093
▁matching	-11.0931
▁initiatives	-11.0931
▁denied	-11.0932
▁beef	-11.0934
cu	-11.0934
▁possibilities	-11.0936
▁detect	-11.0939
▁followers	-11.0942
▁burning	-11.0945
▁Material	-11.0946
▁Korean	-11.0949
▁phrase	-11.095
▁Besides	-11.095
▁upset	-11.0954
▁Lisa	-11.0959
CH	-11.0961
▁packaging	-11.0962
▁cats	-11.0964
▁pe	-11.0966
vert	-11.0967
▁targets	-11.0968
▁vol	-11.0968
ON	-11.0969
▁settle	-11.0969
▁duties	-11.0969
▁applies	-11.0969
▁Holiday	-11.097
ending	-11.0971
▁resulted	-11.0971
▁Gift	-11.0975
▁specified	-11.0976
▁rubber	-11.0976
▁complaint	-11.0977
▁Records	-11.0979
▁governor	-11.0981
ache	-11.0982
▁tries	-11.0984
anda	-11.0991
▁Treatment	-11.0992
▁Senator	-11.0993
▁wheels	-11.0996
▁weapon	-11.0998
▁pipe	-11.0999
▁investigate	-11.1003
▁fantasy	-11.1005
▁mouse	-11.1006
▁clicking	-11.1008
▁swim	-11.101
▁meaningful	-11.1011
▁Coffee	-11.1012
▁advantages	-11.1014
▁brick	-11.1015
avi	-11.1016
hol	-11.1016
▁twin	-11.1016
▁Connect	-11.102
▁expense	-11.1021
BC	-11.1021
bble	-11.1021
{	-11.1023
▁flood	-11.1023
▁intellectual	-11.1024
▁cameras	-11.1024
▁aimed	-11.1025
rn	-11.103
▁poverty	-11.1031
▁Got	-11.1031
▁documentation	-11.1032
▁blast	-11.1035
▁themes	-11.1037
Star	-11.1039
▁cheaper	-11.104
▁Block	-11.104
▁Palm	-11.104
▁invite	-11.1042
▁Sim	-11.1043
▁visits	-11.1046
▁indoor	-11.1047
▁advise	-11.1048
▁expanded	-11.1048
▁resolve	-11.1051
▁texture	-11.1055
▁tablet	-11.1056
”)	-11.1061
screen	-11.1064
▁Pool	-11.1066
▁banking	-11.1068
▁cruise	-11.1069
▁anybody	-11.1071
▁Core	-11.1072
var	-11.1073
osis	-11.1075
▁boards	-11.1077
▁concentration	-11.1077
▁AR	-11.1078
▁rated	-11.1079
▁insights	-11.1079
▁designers	-11.1079
▁Answer	-11.1082
▁declared	-11.1083
▁AL	-11.1084
▁guaranteed	-11.1087
▁happiness	-11.1094
▁actors	-11.1095
tha	-11.1098
DI	-11.11
▁Record	-11.1101
▁mold	-11.1102
▁mechanical	-11.1102
▁unlike	-11.1104
▁Register	-11.1107
under	-11.1107
▁strain	-11.1109
▁assembly	-11.111
▁ba	-11.1111
▁accommodation	-11.1115
▁smartphone	-11.1116
nn	-11.1116
▁fa	-11.1118
▁delivering	-11.1118
sie	-11.1119
▁teaspoon	-11.112
▁transform	-11.1128
▁Episode	-11.1129
▁nutrition	-11.113
▁slide	-11.1135
▁copies	-11.1139
▁Edward	-11.1141
▁periods	-11.1142
▁skilled	-11.1143
▁Premier	-11.1143
▁ownership	-11.1144
UM	-11.1145
cle	-11.1146
▁licensed	-11.1147
▁Mor	-11.115
▁ob	-11.115
▁reverse	-11.1151
▁drove	-11.1151
▁soccer	-11.1154
▁fiscal	-11.1165
▁pics	-11.1168
ame	-11.1173
▁flights	-11.1175
▁Affairs	-11.1175
▁affiliate	-11.1176
▁Investment	-11.1177
▁Cell	-11.1179
▁accommodate	-11.118
▁province	-11.118
▁Res	-11.118
▁symbol	-11.1183
▁rank	-11.1184
▁Must	-11.1184
▁Industrial	-11.1186
▁puts	-11.119
▁worn	-11.119
ENT	-11.119
▁reviewed	-11.1191
▁Mayor	-11.1206
▁comic	-11.1207
col	-11.1213
▁Cast	-11.1214
▁overview	-11.1215
band	-11.1217
ese	-11.1219
▁aged	-11.1221
▁ordinary	-11.1225
bert	-11.1226
▁Regular	-11.123
▁regime	-11.1231
iest	-11.1238
CU	-11.1239
Well	-11.1246
▁fired	-11.1246
▁Maria	-11.1247
▁Wal	-11.1248
▁HIV	-11.1249
▁administrative	-11.1251
▁painful	-11.1252
▁sacrifice	-11.1255
▁des	-11.1257
▁Later	-11.1259
master	-11.1259
Not	-11.1259
▁Massachusetts	-11.126
ef	-11.1264
▁facilitate	-11.1264
▁Similar	-11.1265
cul	-11.1267
shire	-11.127
▁contributed	-11.1271
▁virtually	-11.1275
▁Howard	-11.1276
▁dig	-11.1276
▁stopping	-11.1277
▁Within	-11.1277
▁Justin	-11.128
▁receiver	-11.1282
▁unlikely	-11.1282
▁Days	-11.1287
▁jacket	-11.1287
ington	-11.1292
▁Mexican	-11.1292
▁representation	-11.1294
mes	-11.1295
▁paragraph	-11.1297
gh	-11.1297
ml	-11.1299
▁admission	-11.1299
▁muscles	-11.1303
▁maps	-11.1305
▁comedy	-11.1306
▁Dance	-11.1306
▁subsequent	-11.1307
ene	-11.1307
▁ratings	-11.1311
▁mod	-11.1313
▁horses	-11.1315
▁Outdoor	-11.1316
▁gate	-11.1317
ography	-11.1319
▁employers	-11.1319
▁keyboard	-11.1319
▁prominent	-11.1319
▁Cheap	-11.132
▁Detroit	-11.1323
▁patio	-11.1323
profit	-11.1325
▁Mu	-11.1328
▁trusted	-11.1328
▁oral	-11.1329
▁hunt	-11.133
▁regulatory	-11.1337
▁oz	-11.1338
range	-11.1338
▁workout	-11.134
oli	-11.1342
mus	-11.1345
▁Championship	-11.1349
▁washing	-11.1352
▁winners	-11.1353
▁Alan	-11.1354
▁Volume	-11.1354
▁arch	-11.1358
▁handy	-11.1359
▁retired	-11.1359
▁Han	-11.1359
▁criticism	-11.1361
Time	-11.1366
▁restore	-11.1368
rid	-11.137
ome	-11.1371
▁adopt	-11.1371
▁confused	-11.1377
▁inventory	-11.1378
▁Speaker	-11.1381
▁sofa	-11.1382
▁export	-11.1383
▁Player	-11.1384
▁intervention	-11.1384
▁pleasant	-11.1387
now	-11.1391
bol	-11.1391
span	-11.1392
▁ranked	-11.1393
▁Flash	-11.1401
▁Fish	-11.1401
▁Para	-11.1401
▁Sony	-11.1406
▁intent	-11.1407
▁authentic	-11.1407
will	-11.1408
▁Pink	-11.141
▁Arab	-11.1416
▁instruction	-11.1417
▁motivation	-11.1419
nce	-11.1425
▁profession	-11.1425
▁Maryland	-11.1426
▁disappointed	-11.143
▁demonstrated	-11.143
lit	-11.1433
quire	-11.1439
▁suppose	-11.144
▁Culture	-11.144
▁objectives	-11.1442
▁pile	-11.1442
▁universities	-11.1445
▁auction	-11.1446
▁Denver	-11.1449
▁investing	-11.1449
▁Active	-11.145
▁mild	-11.145
ration	-11.1451
▁refused	-11.1451
▁Andy	-11.1453
EA	-11.1457
▁hill	-11.1458
int	-11.1459
▁finishing	-11.146
▁associate	-11.1461
▁shoe	-11.1461
kh	-11.1462
▁cabinets	-11.1462
▁MB	-11.1463
▁engines	-11.1467
▁publishing	-11.1467
▁Anne	-11.1469
▁fl	-11.1469
▁tears	-11.1469
▁Amy	-11.147
▁reminder	-11.1471
▁predict	-11.1477
try	-11.148
▁instantly	-11.1483
▁Gary	-11.1483
ace	-11.1485
▁pdf	-11.1486
▁worker	-11.1487
▁accuracy	-11.1487
▁Bel	-11.149
▁chips	-11.149
fall	-11.149
nia	-11.149
▁defend	-11.1492
▁landing	-11.1492
▁Mix	-11.1492
▁Springs	-11.1494
▁horror	-11.1495
▁Corp	-11.1495
▁parallel	-11.1499
▁rush	-11.1506
DE	-11.1517
stop	-11.1518
▁tele	-11.1518
OC	-11.152
▁IL	-11.1524
Don	-11.1526
▁shame	-11.1527
▁abroad	-11.1528
night	-11.1529
▁performances	-11.1533
▁Issue	-11.1534
▁stainless	-11.1534
▁refund	-11.1536
▁Prior	-11.154
▁Laura	-11.1541
called	-11.1546
▁Pages	-11.1548
ert	-11.155
any	-11.1553
▁squad	-11.1557
▁Discussion	-11.1558
▁demo	-11.156
▁nurse	-11.156
▁login	-11.1562
▁canada	-11.1563
fit	-11.1567
▁discovery	-11.157
▁Hol	-11.157
ova	-11.157
▁drives	-11.1571
▁captured	-11.1576
▁Junior	-11.1576
▁hybrid	-11.1577
▁skirt	-11.1584
gro	-11.1586
▁Storage	-11.1588
text	-11.1589
▁sole	-11.1589
▁alleged	-11.1591
▁Heat	-11.1595
▁Navy	-11.1596
▁console	-11.1596
gue	-11.1597
▁revolution	-11.16
▁jo	-11.1601
▁Month	-11.1601
▁artwork	-11.1603
▁hub	-11.1604
▁variable	-11.1609
▁PhD	-11.161
▁dancing	-11.1612
▁tender	-11.1614
▁Diamond	-11.1615
▁pants	-11.1619
wick	-11.162
▁settled	-11.1622
▁Jews	-11.1626
▁Match	-11.1626
▁Jennifer	-11.1627
ali	-11.163
sburg	-11.1636
▁rec	-11.1637
▁globe	-11.1639
▁resist	-11.1639
ular	-11.164
▁tent	-11.1641
▁indicates	-11.1643
▁fiber	-11.1644
▁physically	-11.1646
▁Copyright	-11.1647
▁pound	-11.1647
▁Tel	-11.1648
▁neuro	-11.1649
▁Dad	-11.165
▁enormous	-11.1651
tone	-11.1652
▁violent	-11.1654
▁Defense	-11.1655
▁stocks	-11.1659
▁Josh	-11.166
▁signals	-11.1666
▁MORE	-11.1669
only	-11.1673
matic	-11.1673
group	-11.1673
May	-11.1676
RT	-11.1676
▁snap	-11.1677
▁girlfriend	-11.1679
▁compact	-11.168
▁Bus	-11.168
ato	-11.1682
▁gentle	-11.1688
▁minds	-11.1691
▁span	-11.1694
▁hearts	-11.1696
▁Region	-11.1697
▁^	-11.1698
▁Schools	-11.1698
▁hunting	-11.1699
gmail	-11.1703
▁Simply	-11.171
edu	-11.1711
▁Cream	-11.1711
▁immune	-11.1714
▁tin	-11.1723
bank	-11.1723
▁chip	-11.1725
▁Bitcoin	-11.1725
▁Urban	-11.1726
▁Hor	-11.1726
▁terminal	-11.1727
▁tan	-11.1727
▁Delhi	-11.173
▁aggressive	-11.1733
▁productivity	-11.1735
▁Male	-11.1736
lands	-11.1736
▁cooked	-11.1738
▁reflection	-11.1738
▁Repair	-11.1738
▁preview	-11.1738
▁grid	-11.1741
nie	-11.1742
▁beans	-11.1742
dra	-11.1743
▁finds	-11.1746
▁promised	-11.1747
▁intelligent	-11.1748
▁gathered	-11.1749
▁folder	-11.1749
cor	-11.1749
▁curriculum	-11.1753
▁Indeed	-11.1753
▁courts	-11.1754
hn	-11.1755
▁sensor	-11.1756
▁printer	-11.1758
▁servers	-11.1758
phone	-11.1759
▁apparent	-11.1764
▁odds	-11.1764
▁Alabama	-11.1765
RS	-11.1765
▁directory	-11.1769
▁href	-11.1769
burg	-11.1772
cip	-11.1774
step	-11.1776
▁roughly	-11.1776
▁Easter	-11.1776
▁parameters	-11.1776
PI	-11.1777
▁Song	-11.1778
wall	-11.1779
▁networking	-11.178
good	-11.178
ERS	-11.1781
▁Portland	-11.1783
piece	-11.1783
▁vulnerable	-11.1789
▁proportion	-11.179
▁soap	-11.1791
▁crown	-11.1796
▁Fit	-11.1796
▁satellite	-11.18
▁hired	-11.18
▁encouraging	-11.1801
▁Mas	-11.1804
▁copper	-11.1806
▁profits	-11.1807
▁Chamber	-11.1809
▁episodes	-11.181
▁fascinating	-11.1813
▁photograph	-11.1816
▁Suite	-11.1819
cra	-11.182
▁grinding	-11.1821
▁NBA	-11.1824
▁Berlin	-11.1825
die	-11.1825
BS	-11.1828
▁Career	-11.1829
▁wisdom	-11.1829
▁operational	-11.1831
▁estimates	-11.1831
▁respective	-11.1832
▁tune	-11.1832
pper	-11.1833
▁Castle	-11.1839
▁theater	-11.1839
▁supplier	-11.1843
▁threats	-11.1845
▁mountains	-11.1846
▁Options	-11.1848
▁liability	-11.1853
▁NJ	-11.1855
▁accordance	-11.1857
late	-11.1858
sia	-11.1866
▁dependent	-11.1867
rum	-11.187
From	-11.1872
▁op	-11.1875
▁Official	-11.1875
▁actively	-11.1876
▁dozen	-11.1876
▁bow	-11.1877
▁Wolf	-11.1878
▁sorts	-11.1879
▁Mag	-11.1882
▁Villa	-11.1883
▁wrap	-11.1884
▁Communications	-11.1885
▁filing	-11.1887
lation	-11.1889
gs	-11.1889
▁Assembly	-11.1893
▁shortly	-11.1894
▁(“	-11.1894
▁Oklahoma	-11.1897
▁spectacular	-11.1897
▁modified	-11.1897
▁punch	-11.1897
▁collective	-11.1898
uf	-11.1902
▁surprising	-11.1904
itch	-11.1906
▁Bond	-11.1907
▁representing	-11.1908
▁deadline	-11.1908
▁Gun	-11.1908
▁Chicken	-11.1914
▁fur	-11.1916
bell	-11.1918
▁dramatic	-11.1921
mond	-11.1923
▁streaming	-11.1924
▁Metro	-11.1926
▁showcase	-11.1926
FP	-11.1927
▁Fine	-11.193
▁theatre	-11.1932
nz	-11.1938
▁Luke	-11.1941
▁None	-11.1946
▁duration	-11.1946
▁Cape	-11.1948
▁representatives	-11.1948
▁artificial	-11.1949
▁fitting	-11.1951
tur	-11.1952
▁Char	-11.1953
▁exercises	-11.1955
▁Voice	-11.1962
rus	-11.1963
▁stack	-11.1966
▁sheets	-11.1968
bus	-11.197
▁disabled	-11.1971
ori	-11.1972
▁thrown	-11.1976
sc	-11.1976
▁controller	-11.1981
▁Unlike	-11.1988
front	-11.199
sta	-11.199
UR	-11.1991
▁quilt	-11.1995
▁forecast	-11.1995
▁regret	-11.1998
▁ultra	-11.1998
▁popularity	-11.2
ique	-11.2005
▁instrument	-11.2006
▁CL	-11.2006
ching	-11.2008
power	-11.201
ico	-11.2013
▁Authority	-11.2013
▁graduated	-11.2014
▁enjoyable	-11.2015
▁Foreign	-11.2018
▁differently	-11.2019
▁Atlantic	-11.2026
▁RA	-11.2026
▁conversations	-11.2029
▁athletes	-11.203
▁involvement	-11.2032
▁Alexander	-11.2034
▁foam	-11.2036
▁Hell	-11.2037
▁liver	-11.2037
Your	-11.2037
▁reserve	-11.2038
Li	-11.2041
▁territory	-11.2042
ax	-11.2043
▁Bruce	-11.2043
▁Popular	-11.2043
▁Clinical	-11.2044
▁Ber	-11.2047
▁bay	-11.2051
▁lawyers	-11.2053
▁operated	-11.2055
▁honestly	-11.2057
▁Risk	-11.2058
white	-11.206
▁balanced	-11.2062
▁newest	-11.2062
▁anger	-11.2064
EM	-11.2065
▁destroyed	-11.2066
▁Base	-11.2066
▁lit	-11.2067
▁logic	-11.207
▁coaches	-11.2072
▁Math	-11.2072
▁balls	-11.2074
▁scrap	-11.2077
???	-11.2078
▁frozen	-11.2084
▁thoroughly	-11.2086
▁neutral	-11.2094
▁Disease	-11.21
▁chopped	-11.21
▁remarkable	-11.2104
▁Package	-11.2105
▁habits	-11.2107
▁yield	-11.2108
▁tub	-11.2108
ae	-11.2109
▁Ingredients	-11.2112
▁quit	-11.2112
market	-11.2113
▁\	-11.2114
▁Bla	-11.2115
..."	-11.2118
eri	-11.2119
▁Interior	-11.2119
▁WI	-11.2121
▁Oxford	-11.2122
DA	-11.2122
▁**	-11.2125
press	-11.2125
▁reward	-11.2126
▁preserve	-11.2128
▁Utah	-11.2128
nal	-11.213
▁Ob	-11.213
▁epi	-11.2136
▁Jonathan	-11.2137
its	-11.2138
▁mount	-11.2141
▁Wo	-11.2142
▁portable	-11.2143
▁spoken	-11.2144
▁Clear	-11.2144
nis	-11.2146
▁disagree	-11.2148
▁Ag	-11.2152
dar	-11.2156
TP	-11.2156
▁figured	-11.2156
▁Target	-11.2159
▁gel	-11.2162
▁Lot	-11.2165
▁elite	-11.2165
▁universal	-11.2165
▁wider	-11.2166
▁Works	-11.2168
SO	-11.2169
▁analyze	-11.2173
grade	-11.2174
▁enhanced	-11.2175
▁binary	-11.2179
▁hospitals	-11.218
▁campaigns	-11.2182
▁instruments	-11.2185
▁Tower	-11.2189
▁Animal	-11.2196
▁pharmacy	-11.2199
▁FA	-11.2201
▁Christians	-11.2201
▁supporters	-11.2202
lot	-11.2212
order	-11.2215
▁scratch	-11.2215
▁Charlie	-11.2216
▁Walker	-11.2219
▁integrity	-11.2219
▁removing	-11.222
▁Tennessee	-11.2223
▁Something	-11.2227
▁gang	-11.2229
▁Java	-11.223
▁gray	-11.2231
▁Dun	-11.2231
▁Hunter	-11.2233
▁Soft	-11.2236
▁NEW	-11.224
▁durable	-11.224
▁strengthen	-11.2243
▁loaded	-11.2244
▁lately	-11.2247
▁arguments	-11.2247
Ba	-11.2251
▁insert	-11.2252
aging	-11.2252
▁poem	-11.2252
▁shake	-11.2253
▁accomplished	-11.2256
▁coupon	-11.2256
▁bacteria	-11.226
▁Overview	-11.2263
▁shine	-11.2264
nate	-11.2267
▁cord	-11.2269
▁Harris	-11.227
▁adapt	-11.2272
▁grill	-11.2275
▁fallen	-11.2277
▁bulk	-11.2277
▁acres	-11.2278
▁cooperation	-11.2278
worth	-11.2281
▁Guest	-11.2281
▁tower	-11.2281
▁assignment	-11.2281
▁Consumer	-11.2284
▁occasionally	-11.2285
Yes	-11.2285
▁lying	-11.2288
▁margin	-11.229
▁Companies	-11.229
▁ministry	-11.229
▁expecting	-11.2295
oni	-11.2296
▁crushing	-11.2296
ew	-11.2298
▁max	-11.2298
▁subtle	-11.23
▁adoption	-11.2301
▁substitute	-11.2303
▁drill	-11.2305
▁spouse	-11.2307
▁Survey	-11.2307
▁powers	-11.2308
SD	-11.2309
▁dr	-11.2309
▁temple	-11.2309
vid	-11.2312
▁Jose	-11.2312
▁Hat	-11.2316
▁vent	-11.2317
▁Vietnam	-11.2318
▁IV	-11.2319
▁silence	-11.2319
▁poetry	-11.232
▁dirt	-11.2321
▁bull	-11.2323
▁Cleveland	-11.2324
▁Steven	-11.2324
esh	-11.2325
▁Organization	-11.2325
▁relating	-11.2325
▁Nations	-11.2325
▁athletic	-11.2328
▁arrangements	-11.2328
▁SD	-11.2332
▁timing	-11.2333
▁protecting	-11.2333
▁clinic	-11.2335
stock	-11.2338
^	-11.2339
▁maker	-11.2342
▁Phoenix	-11.2343
▁vertical	-11.2349
▁Egypt	-11.235
▁Feel	-11.2351
take	-11.2353
▁complaints	-11.2354
▁Actually	-11.2354
▁execution	-11.2357
▁desert	-11.2358
▁closet	-11.2358
▁productive	-11.2359
▁Half	-11.2366
▁publish	-11.2368
mination	-11.237
eau	-11.237
▁psychological	-11.237
▁bat	-11.237
▁placement	-11.2371
▁Grace	-11.2372
▁reveals	-11.2374
responsibilities	-11.2374
LO	-11.2375
▁veteran	-11.2379
▁Associate	-11.2381
▁nail	-11.2381
▁Horse	-11.2385
▁Essay	-11.2386
▁graph	-11.2386
▁Gray	-11.2386
▁Honor	-11.2386
rian	-11.2388
▁workshops	-11.2393
▁cha	-11.2395
▁Rome	-11.2395
stein	-11.2397
▁Schedule	-11.2398
▁embrace	-11.2399
▁Bureau	-11.24
▁thinks	-11.2401
Ed	-11.2401
▁ranging	-11.2401
▁Cy	-11.2401
▁blogging	-11.2403
▁Orleans	-11.2404
nan	-11.2407
▁floors	-11.2407
ates	-11.2413
▁Rachel	-11.2421
▁entries	-11.2425
▁robust	-11.2425
▁Stars	-11.2429
▁underlying	-11.2429
▁Alaska	-11.2429
▁excessive	-11.243
App	-11.2432
hard	-11.2435
▁tutorial	-11.2435
▁Door	-11.2436
▁pets	-11.2437
▁excitement	-11.2438
▁Dutch	-11.2439
▁Reserve	-11.244
▁forgotten	-11.244
▁grounds	-11.2441
▁inspiring	-11.2443
▁notion	-11.2443
▁subscribe	-11.2444
qu	-11.2445
▁organisations	-11.2446
Bo	-11.2447
ake	-11.2447
▁tsp	-11.2448
▁pulling	-11.245
bridge	-11.245
▁prevention	-11.2451
▁coin	-11.2452
▁physician	-11.2452
▁Ac	-11.2453
▁adequate	-11.2454
▁dirty	-11.2455
▁OH	-11.2455
▁unexpected	-11.2459
▁stops	-11.2459
▁Until	-11.2459
▁pension	-11.246
▁closure	-11.2463
▁blessed	-11.2464
▁magical	-11.2465
▁Fu	-11.2466
▁entertaining	-11.2467
▁radical	-11.2467
▁Olympic	-11.247
specific	-11.247
▁superb	-11.247
▁Fo	-11.247
▁Payment	-11.2475
▁suicide	-11.2476
▁feeding	-11.2476
Can	-11.2478
▁Present	-11.2478
▁walks	-11.248
▁buyer	-11.2484
▁actress	-11.2485
▁Labor	-11.2485
▁leaf	-11.2487
▁references	-11.2487
ila	-11.2488
▁governments	-11.2489
▁Panel	-11.249
▁throwing	-11.2491
▁chairman	-11.2493
▁politicians	-11.2497
▁convey	-11.2498
▁Words	-11.2498
▁Tickets	-11.2499
▁warranty	-11.2501
▁ruling	-11.2501
▁endless	-11.2504
▁trials	-11.2505
▁surrounded	-11.2507
▁abstract	-11.2509
▁Tar	-11.2509
▁interactions	-11.2512
▁tablets	-11.2514
▁Chairman	-11.2514
▁Build	-11.2516
▁prospect	-11.2523
▁solely	-11.2524
▁tile	-11.2526
▁Kentucky	-11.2527
▁mystery	-11.2527
▁photographer	-11.2528
▁excuse	-11.2529
▁Tools	-11.2529
ern	-11.2531
▁Wales	-11.2534
▁sail	-11.2539
ora	-11.2542
▁Syria	-11.2542
▁Woman	-11.2542
▁fruits	-11.2544
ense	-11.2546
▁Discover	-11.2548
PR	-11.2548
sville	-11.2551
▁Philip	-11.2551
Photo	-11.2554
News	-11.2554
▁bother	-11.2558
sized	-11.2559
sur	-11.256
▁troops	-11.256
ulation	-11.2562
▁inspection	-11.2562
▁intention	-11.2563
▁promises	-11.2563
▁Brad	-11.257
lly	-11.257
▁finest	-11.2571
▁piano	-11.2571
ui	-11.2571
▁exterior	-11.2574
▁Sar	-11.2575
▁Rain	-11.2575
▁react	-11.2578
▁beautifully	-11.2578
▁outlet	-11.2579
▁Beauty	-11.2579
▁wing	-11.258
▁Adult	-11.2581
berry	-11.2582
▁acceptable	-11.2582
▁BR	-11.2584
▁remind	-11.2587
▁legacy	-11.2587
ened	-11.2588
HA	-11.259
▁Battle	-11.259
▁awful	-11.259
tter	-11.2591
▁Solar	-11.2593
▁Added	-11.2593
vol	-11.2593
▁rep	-11.2597
LC	-11.2598
▁profiles	-11.2599
▁displays	-11.2599
▁Missouri	-11.26
▁immigration	-11.26
▁Hy	-11.26
▁imagination	-11.2604
▁genre	-11.2607
▁locally	-11.2608
▁Speaking	-11.2609
▁Screen	-11.261
lat	-11.2611
▁lips	-11.2611
▁neighbors	-11.2613
OD	-11.2613
▁ja	-11.2615
▁Rod	-11.2619
▁generations	-11.2621
▁begun	-11.2624
▁CS	-11.2627
▁financing	-11.2628
▁waves	-11.263
▁zip	-11.2631
▁concluded	-11.2632
vir	-11.2634
ELL	-11.2637
▁bedrooms	-11.2638
▁locate	-11.2639
▁keys	-11.264
LT	-11.2642
ear	-11.2644
">	-11.2646
oid	-11.2647
CR	-11.265
▁locked	-11.265
chen	-11.2651
▁crop	-11.2651
▁cloth	-11.2653
▁producers	-11.2653
▁ears	-11.2657
▁powered	-11.2662
pu	-11.2662
▁suite	-11.2662
pped	-11.2665
▁carries	-11.2666
▁keen	-11.2666
base	-11.2667
▁crystal	-11.267
▁presidential	-11.2672
▁Buck	-11.2677
core	-11.2678
▁warrant	-11.2679
ML	-11.2679
▁flip	-11.2679
▁homework	-11.268
▁achievement	-11.2681
▁Cold	-11.2682
▁Bring	-11.2683
▁que	-11.2684
igh	-11.2684
▁movements	-11.2685
▁Motor	-11.2686
▁Intel	-11.2686
▁disk	-11.2686
AN	-11.2689
▁tongue	-11.2691
▁nicely	-11.2691
aff	-11.2692
▁Score	-11.2693
▁grain	-11.2697
▁ABC	-11.2701
▁calories	-11.2701
▁Benefits	-11.2702
▁potatoes	-11.2703
▁quest	-11.2704
▁connecting	-11.2707
ban	-11.2708
▁attempted	-11.2708
▁knife	-11.2708
▁boring	-11.271
mas	-11.2715
▁patent	-11.2719
ifying	-11.2721
und	-11.2725
▁refers	-11.2726
▁tear	-11.2727
VE	-11.2729
▁carrier	-11.273
▁convinced	-11.2731
▁Say	-11.2732
▁observe	-11.2733
▁Pur	-11.2737
▁beliefs	-11.2739
▁Leadership	-11.2739
▁strive	-11.2745
city	-11.2746
▁DIY	-11.2748
lash	-11.275
▁spectrum	-11.2752
▁placing	-11.2752
▁LikeLike	-11.2753
▁Lab	-11.2754
▁habit	-11.2756
▁generous	-11.2757
▁Kin	-11.2757
▁Captain	-11.2757
▁shed	-11.2759
▁jet	-11.2761
ICE	-11.2762
▁abortion	-11.2765
▁Agreement	-11.2766
blog	-11.2768
▁marijuana	-11.277
▁releases	-11.2775
▁Cro	-11.2782
▁Russell	-11.2783
▁shadow	-11.2783
▁Os	-11.2784
▁vendors	-11.2785
▁Convention	-11.2787
▁courtesy	-11.2787
ili	-11.2789
▁Skills	-11.2789
▁structural	-11.2792
▁Christopher	-11.2793
▁Def	-11.2794
▁valve	-11.2796
▁Bull	-11.2797
▁constructed	-11.2798
kitchen	-11.2798
CD	-11.28
dan	-11.2801
▁acknowledge	-11.2803
▁occasions	-11.2805
▁Install	-11.2806
about	-11.2807
▁CH	-11.2807
▁meters	-11.2807
pan	-11.2808
▁Ky	-11.2809
▁competitors	-11.2809
▁invitation	-11.2809
▁Subject	-11.2809
▁lawn	-11.2811
lle	-11.2812
▁Response	-11.2812
▁compatible	-11.2813
NY	-11.2813
▁glasses	-11.2816
▁measurement	-11.2817
▁races	-11.2821
▁unfortunately	-11.2823
aire	-11.2827
▁Nigeria	-11.2827
▁License	-11.2827
▁privilege	-11.2827
▁operator	-11.2829
▁advised	-11.2829
▁bell	-11.2832
shirt	-11.2832
▁bite	-11.2836
Just	-11.2837
▁pole	-11.2837
▁tu	-11.2838
▁tooth	-11.2839
being	-11.284
▁heritage	-11.2844
▁Cambridge	-11.2845
▁trap	-11.2847
▁Birthday	-11.2849
▁Interview	-11.285
ua	-11.285
▁possess	-11.2851
arm	-11.2852
▁Highway	-11.2852
▁Whatever	-11.2853
▁DR	-11.2853
▁tennis	-11.2854
▁dying	-11.286
▁cure	-11.2861
▁sophisticated	-11.2867
▁Ter	-11.2869
▁purchases	-11.2869
▁Bath	-11.2869
EP	-11.287
▁drops	-11.2871
▁charm	-11.2872
▁expanding	-11.2873
▁processed	-11.2876
▁VI	-11.2878
▁und	-11.2878
▁Je	-11.2879
▁adorable	-11.288
▁chamber	-11.288
▁Penn	-11.288
lib	-11.2881
▁Cre	-11.2881
▁provisions	-11.2883
hold	-11.2886
▁exceed	-11.2887
▁peer	-11.2888
▁Temple	-11.2889
▁Hart	-11.289
cia	-11.2891
▁relate	-11.2891
▁chemicals	-11.2891
cur	-11.2893
rating	-11.2894
▁reminded	-11.2895
▁relaxing	-11.2895
love	-11.2895
▁crap	-11.2898
NS	-11.29
▁fed	-11.29
▁highway	-11.2902
▁stylish	-11.2902
hin	-11.2904
▁upload	-11.2905
▁companion	-11.2906
▁Strong	-11.2907
winning	-11.2907
▁Corporate	-11.2909
▁Angel	-11.2909
▁Morning	-11.2911
▁drag	-11.2913
media	-11.2914
▁Charlotte	-11.2914
▁boyfriend	-11.2916
▁Purchase	-11.2917
▁speaks	-11.2918
▁repairs	-11.2919
=]	-11.2919
▁Antonio	-11.292
weight	-11.292
▁Melbourne	-11.2924
▁Rather	-11.2925
▁environments	-11.2926
▁rolled	-11.2927
▁NYC	-11.2927
▁additionally	-11.2928
▁gut	-11.2929
▁Michelle	-11.293
str	-11.2932
▁HTML	-11.2932
▁sixth	-11.2933
mate	-11.2934
▁Sco	-11.2936
print	-11.2937
▁coconut	-11.2938
▁Barbara	-11.2938
▁hence	-11.2939
▁scam	-11.2939
▁disability	-11.294
▁strict	-11.2941
▁Sy	-11.2944
▁hosts	-11.2945
▁Craig	-11.2945
▁fo	-11.2949
▁Status	-11.2951
▁visa	-11.2952
▁slight	-11.2953
▁ur	-11.2953
eck	-11.2955
▁nu	-11.2956
path	-11.2958
▁extraordinary	-11.296
▁Premium	-11.2964
»	-11.2966
▁CR	-11.2966
▁precisely	-11.2968
▁Production	-11.2969
▁fucking	-11.2969
▁Constitution	-11.297
▁difficulties	-11.2971
▁binding	-11.2973
▁Trip	-11.2973
▁Photography	-11.2973
▁Ap	-11.2976
▁Francis	-11.2977
▁seller	-11.2977
active	-11.2978
▁lyrics	-11.2978
▁breathing	-11.2979
walk	-11.2981
...”	-11.2981
▁effectiveness	-11.2989
▁emissions	-11.2989
store	-11.299
▁semester	-11.2991
SM	-11.2992
▁Thu	-11.2992
▁donation	-11.2993
▁cons	-11.2996
▁petition	-11.2998
▁Ger	-11.3
▁ISBN	-11.3003
▁Letter	-11.3005
▁credits	-11.3005
▁processor	-11.3005
▁Bear	-11.3008
tics	-11.3009
▁attempting	-11.3012
erson	-11.3014
▁Karen	-11.3015
izer	-11.3016
▁Afghanistan	-11.3018
ural	-11.302
▁steal	-11.3022
▁guns	-11.3022
cker	-11.3023
▁steady	-11.3032
tis	-11.3032
▁jury	-11.3034
▁Hal	-11.3034
▁mounted	-11.3035
▁wage	-11.3038
LM	-11.3038
▁corresponding	-11.3038
▁Extra	-11.3041
▁sectors	-11.3042
ben	-11.3042
there	-11.3043
eth	-11.3044
▁bearing	-11.3047
▁Gil	-11.305
▁addiction	-11.3055
)(	-11.3056
▁qualify	-11.3056
zz	-11.3057
▁Wars	-11.3059
▁realistic	-11.3059
▁precise	-11.3059
▁Virtual	-11.3064
▁Islam	-11.3066
▁handful	-11.3069
CT	-11.307
▁sudden	-11.3073
▁gross	-11.3073
▁praise	-11.3075
▁SW	-11.3075
▁Falls	-11.3076
▁disorders	-11.3076
▁artistic	-11.3076
▁giveaway	-11.3081
▁purple	-11.3082
▁lu	-11.3083
▁Skin	-11.3084
▁Twin	-11.3086
▁onion	-11.3087
rink	-11.3089
▁Hours	-11.3089
SL	-11.309
▁Guy	-11.3091
▁crimes	-11.3091
PP	-11.3094
▁pad	-11.3098
▁romance	-11.31
▁bomb	-11.3101
▁discussing	-11.3103
bl	-11.3104
▁wi	-11.3107
▁bottles	-11.3108
▁Larry	-11.311
▁bin	-11.3111
sion	-11.3113
Now	-11.3116
▁celebrated	-11.3122
DP	-11.3122
▁clever	-11.3122
▁exhibit	-11.3123
▁Along	-11.3123
▁comp	-11.3124
▁Impact	-11.3124
▁Thompson	-11.3127
▁aluminum	-11.3127
▁Marc	-11.3127
▁LOL	-11.3128
▁laundry	-11.3131
▁Glen	-11.3132
AU	-11.3135
▁medications	-11.3135
▁Sin	-11.3138
▁der	-11.3138
▁operators	-11.3139
mis	-11.3139
▁Ultra	-11.314
▁Galaxy	-11.314
▁Environment	-11.3141
▁integrate	-11.3146
ident	-11.3148
▁Islamic	-11.3148
▁cheer	-11.3152
▁repeated	-11.3154
▁Brooklyn	-11.3154
iya	-11.3156
ency	-11.3159
NET	-11.3159
▁Left	-11.3161
▁dump	-11.3162
▁cabin	-11.3164
hl	-11.3164
til	-11.3164
▁detection	-11.3165
TI	-11.317
▁trim	-11.317
▁convention	-11.3171
una	-11.3171
▁Wayne	-11.3173
▁Commissioner	-11.3174
Di	-11.3175
body	-11.3175
▁capability	-11.3178
Pre	-11.3183
▁Adams	-11.3184
▁mac	-11.3185
ement	-11.3186
▁animation	-11.3187
▁Retail	-11.3188
tie	-11.3189
AG	-11.319
▁Communication	-11.3191
▁charging	-11.3193
▁Chocolate	-11.3193
▁comply	-11.3195
▁quarterback	-11.3195
▁Count	-11.3198
▁delete	-11.3199
▁bump	-11.3199
▁Stewart	-11.32
NO	-11.32
▁threw	-11.32
▁parks	-11.3201
RI	-11.3201
▁failing	-11.3205
gent	-11.3206
▁killer	-11.3208
▁Sur	-11.3212
ched	-11.3212
▁Choice	-11.3214
▁fleet	-11.3215
user	-11.3215
▁Emergency	-11.3217
cri	-11.3217
▁Bachelor	-11.3218
▁democracy	-11.3218
▁shelf	-11.322
gas	-11.322
▁dressing	-11.322
▁Vancouver	-11.3223
iti	-11.3226
▁overseas	-11.3227
▁advocate	-11.3227
▁Fred	-11.323
▁Dry	-11.3232
▁contents	-11.3232
▁couples	-11.3233
case	-11.3234
▁sustain	-11.3235
▁EX	-11.3236
▁assured	-11.3237
▁labour	-11.3237
▁Kan	-11.3239
▁conservation	-11.3241
▁publicly	-11.3242
▁Quotes	-11.3244
▁navigate	-11.3246
▁scared	-11.325
sey	-11.325
most	-11.3251
▁canvas	-11.3251
▁Linda	-11.3252
spect	-11.3253
▁deaths	-11.3254
▁beam	-11.3255
▁Gre	-11.3255
▁Jam	-11.3256
ald	-11.3257
▁Listing	-11.3257
▁progressive	-11.3259
▁churches	-11.326
▁Focus	-11.3261
▁Ol	-11.3261
▁MC	-11.3269
▁Diet	-11.327
▁Request	-11.3271
TION	-11.3271
▁Ground	-11.3273
TT	-11.3275
▁medal	-11.3277
▁relaxed	-11.3279
▁ra	-11.3287
▁technological	-11.3287
▁diagram	-11.3287
ela	-11.3289
▁Des	-11.3292
▁Amazing	-11.3293
▁suspension	-11.3301
▁scholarship	-11.3303
▁Furniture	-11.3306
▁Duke	-11.3306
▁Sean	-11.3308
ree	-11.3308
▁Ly	-11.331
mu	-11.331
▁Stories	-11.3311
▁SS	-11.3314
▁ga	-11.3317
▁determination	-11.3322
▁stem	-11.3325
Learn	-11.3326
▁damn	-11.3327
iva	-11.3327
▁Okay	-11.333
after	-11.3332
▁striking	-11.3333
▁Message	-11.3335
fold	-11.3335
speed	-11.3337
▁hydro	-11.334
▁tale	-11.3341
▁Alliance	-11.3343
▁produces	-11.3345
▁nuts	-11.3345
flow	-11.3345
wal	-11.3346
▁gains	-11.3346
▁fancy	-11.3349
▁affects	-11.335
▁Touch	-11.3352
▁Budget	-11.3352
▁google	-11.3354
osa	-11.3355
show	-11.3357
▁Length	-11.3358
▁legitimate	-11.3361
▁incorporate	-11.3365
▁completing	-11.3366
▁edges	-11.3366
▁forgot	-11.3367
▁Between	-11.337
▁utilizing	-11.337
unt	-11.3373
▁prompt	-11.3376
▁Ser	-11.3376
lton	-11.3377
MI	-11.3378
▁Gene	-11.3379
▁grocery	-11.338
▁inflation	-11.338
▁Baker	-11.338
En	-11.3383
▁Kings	-11.3384
tail	-11.3386
▁candy	-11.3386
▁Ridge	-11.3386
▁passengers	-11.3389
▁Notice	-11.3389
▁Seven	-11.339
▁Yoga	-11.3391
▁tattoo	-11.3394
▁buttons	-11.3397
▁Gordon	-11.3399
▁captain	-11.3399
▁Offer	-11.3399
▁tre	-11.34
▁WE	-11.3401
▁ke	-11.3406
▁Display	-11.3406
▁intimate	-11.3408
▁lip	-11.3412
▁biological	-11.3413
▁engineer	-11.3415
kg	-11.3417
▁enemies	-11.3417
▁Hay	-11.3418
stick	-11.3418
▁Ty	-11.3421
Edit	-11.3423
nna	-11.3423
gre	-11.3424
sign	-11.3424
▁Innovation	-11.3427
▁NE	-11.3427
▁oldest	-11.3427
rose	-11.3429
Sc	-11.343
▁foster	-11.343
where	-11.3434
▁evident	-11.3436
sub	-11.3436
gger	-11.3438
▁supplied	-11.3441
▁commented	-11.3441
atory	-11.3441
▁cooling	-11.3442
▁palm	-11.3443
▁loads	-11.3446
▁Lawrence	-11.345
▁arrangement	-11.3451
▁JavaScript	-11.3451
ean	-11.3452
▁Hub	-11.3456
bird	-11.3463
▁Tur	-11.3471
▁browse	-11.3472
▁dressed	-11.3472
▁alternatives	-11.3473
▁Empire	-11.3473
▁cyber	-11.3473
▁cock	-11.3474
▁departments	-11.3474
ION	-11.3475
▁Going	-11.3476
▁oxygen	-11.3478
▁engineers	-11.3479
▁tags	-11.348
▁edited	-11.348
ridge	-11.348
rous	-11.3482
▁Gay	-11.3482
▁cancel	-11.3485
▁radiation	-11.3488
▁identical	-11.3488
stra	-11.3492
lor	-11.3493
▁bang	-11.3493
start	-11.3493
▁''	-11.3496
▁Cleaning	-11.3497
▁Fed	-11.3498
▁dried	-11.3498
▁Sri	-11.35
▁Break	-11.3501
▁Registration	-11.3501
▁affairs	-11.3503
▁exclusively	-11.3506
▁ko	-11.3507
▁Starting	-11.351
host	-11.3512
▁Ana	-11.3512
cht	-11.3515
char	-11.3515
▁wildlife	-11.3517
▁moderate	-11.352
▁recommendation	-11.3521
▁tourist	-11.3522
▁Weather	-11.3525
girl	-11.3525
▁si	-11.3526
▁fold	-11.3528
▁Academic	-11.3528
▁ships	-11.3533
▁Oscar	-11.3536
san	-11.3537
▁Robin	-11.3537
▁Previous	-11.3537
DR	-11.3537
▁dimensions	-11.3538
▁Parliament	-11.3539
wise	-11.354
▁Sleep	-11.354
▁Deal	-11.3541
▁Range	-11.3545
▁handed	-11.3548
▁Ak	-11.3549
▁Inside	-11.355
mun	-11.3553
▁Stage	-11.3553
▁sweat	-11.3554
▁Stadium	-11.3554
▁Taking	-11.3555
▁Crime	-11.3557
Home	-11.3558
▁checks	-11.3562
▁exploration	-11.3563
ave	-11.3564
▁Sugar	-11.3565
▁transferred	-11.3565
▁shaped	-11.3565
▁variables	-11.3566
lf	-11.3568
▁mainstream	-11.3569
▁mentor	-11.357
say	-11.3571
▁tours	-11.3575
▁Ah	-11.3576
▁wrapped	-11.3577
▁measurements	-11.3578
GE	-11.358
eal	-11.3583
▁Grey	-11.3584
RY	-11.3587
▁funded	-11.3589
▁Spec	-11.3589
▁Ward	-11.3592
▁sn	-11.36
▁complement	-11.3601
▁Arm	-11.3603
▁defendant	-11.3604
▁ro	-11.3605
▁specialists	-11.3605
eur	-11.3607
pon	-11.3609
▁Wil	-11.3609
GS	-11.3615
▁considerable	-11.3616
Ne	-11.3616
......	-11.3617
last	-11.3617
FL	-11.3618
▁humanity	-11.3618
▁CI	-11.3618
fo	-11.3623
▁Roy	-11.3625
▁logical	-11.3625
source	-11.3626
▁Yellow	-11.3629
bal	-11.3629
▁horrible	-11.363
▁tremendous	-11.3631
▁listings	-11.3632
▁experimental	-11.3633
▁dough	-11.3633
▁Die	-11.3636
▁Users	-11.3638
▁indication	-11.364
OT	-11.3642
▁Cooper	-11.3643
oul	-11.3644
LL	-11.3644
▁retreat	-11.3647
▁construct	-11.365
▁verify	-11.365
ava	-11.3651
▁shapes	-11.3653
▁Wish	-11.3654
▁hungry	-11.3655
dies	-11.3655
eller	-11.3657
▁Thanksgiving	-11.366
▁discrimination	-11.3662
ect	-11.3662
▁Ye	-11.367
▁queen	-11.3674
▁Usually	-11.3677
▁Valentine	-11.3678
▁stamp	-11.368
▁ter	-11.3684
▁caring	-11.3686
nel	-11.3687
▁Hopefully	-11.3688
▁discipline	-11.369
gr	-11.369
▁Hamilton	-11.3693
▁alter	-11.3693
▁Aaron	-11.3696
▁vaccine	-11.3697
▁Gulf	-11.3698
▁GM	-11.37
▁worthy	-11.37
ital	-11.3703
Vi	-11.3704
pot	-11.3704
▁intend	-11.3705
▁vacuum	-11.3707
▁;)	-11.3707
▁HA	-11.3708
▁Together	-11.3711
▁sisters	-11.3712
rc	-11.3712
script	-11.3714
load	-11.3716
▁Artist	-11.3716
▁Breakfast	-11.3716
ito	-11.3718
▁alike	-11.3718
▁Flight	-11.372
ddle	-11.3721
OM	-11.3725
▁knock	-11.373
▁personalized	-11.3731
▁specialized	-11.3735
IV	-11.3735
uma	-11.3735
amp	-11.3736
▁viewers	-11.3736
▁contractor	-11.3738
▁jazz	-11.3743
Google	-11.3746
▁conditioning	-11.3747
▁Dick	-11.3748
▁rings	-11.375
▁accompanied	-11.375
▁fraction	-11.375
▁Workshop	-11.3751
uro	-11.3755
ien	-11.3755
▁Edge	-11.3755
▁rocks	-11.3756
▁HERE	-11.3758
▁Jessica	-11.3758
yer	-11.3759
▁Certified	-11.376
▁Chrome	-11.376
▁injection	-11.376
▁delight	-11.376
▁observation	-11.3761
▁citizen	-11.3762
▁Dy	-11.3763
ttle	-11.3763
▁beneath	-11.3765
cell	-11.3767
▁proceed	-11.3768
Ad	-11.3768
▁Truck	-11.3769
▁amenities	-11.377
▁stolen	-11.3772
▁sponsored	-11.3773
watch	-11.3775
▁humor	-11.3775
▁Morris	-11.3776
met	-11.3776
fr	-11.3777
▁proteins	-11.3778
▁beloved	-11.3778
▁Rent	-11.3779
▁tourism	-11.378
dle	-11.378
gress	-11.378
▁Aid	-11.3782
▁identification	-11.3784
▁Est	-11.3786
▁Shopping	-11.3787
▁india	-11.3793
▁armed	-11.3794
▁Visual	-11.3794
▁ET	-11.3795
▁priced	-11.3795
mission	-11.38
▁burst	-11.3801
▁grants	-11.3801
▁dealer	-11.3802
▁composed	-11.3804
FS	-11.3805
▁legend	-11.3805
▁diagnosed	-11.3808
▁Heritage	-11.3808
aya	-11.3809
▁donations	-11.3813
cel	-11.3813
▁implications	-11.3813
▁funeral	-11.3813
IVE	-11.3815
equ	-11.3815
▁tomatoes	-11.3817
▁Awesome	-11.3818
></	-11.3818
▁optimal	-11.3819
miss	-11.382
▁Independent	-11.382
▁Elementary	-11.3823
▁Transportation	-11.3824
bid	-11.3825
▁favorites	-11.3828
gel	-11.3829
▁organize	-11.383
graph	-11.3831
▁competing	-11.3833
▁memorable	-11.3833
ATION	-11.3835
▁Guard	-11.3839
OP	-11.384
▁rejected	-11.3842
▁publications	-11.3843
▁moisture	-11.3843
▁AB	-11.3843
AB	-11.3845
▁musicians	-11.3849
▁_	-11.3851
Book	-11.3852
▁Designer	-11.3852
▁Soul	-11.3853
tta	-11.3853
▁collecting	-11.3855
dog	-11.3856
▁Glad	-11.3856
▁mall	-11.3857
▁Nelson	-11.3858
▁arranged	-11.3859
aj	-11.386
▁suggestion	-11.3861
teen	-11.3861
file	-11.3862
▁harsh	-11.3863
▁prospects	-11.3868
une	-11.3868
▁Videos	-11.3868
awa	-11.387
▁Vision	-11.387
▁handled	-11.3871
▁secured	-11.3876
Sa	-11.3877
▁situated	-11.3877
effective	-11.3878
▁cam	-11.388
Lo	-11.3881
ough	-11.3882
▁Filter	-11.3883
▁Ship	-11.3883
▁counts	-11.3883
rock	-11.3885
▁Ur	-11.3885
▁pub	-11.3885
Cl	-11.3885
▁Greece	-11.3887
Min	-11.3888
▁discounts	-11.3888
▁Bit	-11.3889
▁Gov	-11.3892
trans	-11.3896
▁deficit	-11.3896
▁scent	-11.3897
▁rally	-11.39
▁silent	-11.3903
▁poster	-11.3903
tric	-11.3904
ites	-11.3905
ook	-11.3906
rri	-11.3907
nor	-11.3907
▁Housing	-11.3907
▁strap	-11.3907
▁density	-11.3908
▁retailers	-11.3909
▁amp	-11.3909
▁plates	-11.3911
lb	-11.3914
▁dropping	-11.3914
▁Found	-11.3915
▁Leather	-11.3916
gov	-11.3917
▁Beat	-11.3918
▁stepped	-11.392
▁navigation	-11.3921
▁Hawaii	-11.3921
ello	-11.3921
▁lean	-11.3925
▁Congratulations	-11.3926
▁wholesale	-11.3927
▁wherever	-11.3929
▁motivated	-11.3929
▁pour	-11.3931
▁Often	-11.3931
▁mixing	-11.3931
▁anytime	-11.3932
▁Camera	-11.3932
][	-11.3933
▁Graduate	-11.3936
▁Reg	-11.3936
▁Blu	-11.3936
▁titled	-11.3937
▁Mur	-11.3938
▁shorter	-11.3939
▁Wright	-11.3939
▁designing	-11.3941
fu	-11.3945
▁efficiently	-11.3946
east	-11.3946
ctor	-11.3952
▁pur	-11.3952
gor	-11.3953
▁facial	-11.3955
Dis	-11.3956
▁Rule	-11.3957
After	-11.3957
▁tv	-11.3957
▁Rio	-11.3958
▁couch	-11.3959
▁Recently	-11.396
▁significance	-11.396
▁Built	-11.396
▁proposals	-11.3963
▁fool	-11.3964
▁pi	-11.3964
▁Graham	-11.3966
▁Maine	-11.3966
▁peaceful	-11.3967
▁limitations	-11.3967
▁remembered	-11.3967
▁Bor	-11.3967
▁vibrant	-11.397
jan	-11.397
▁Mont	-11.397
▁Beyond	-11.397
▁Materials	-11.3972
itter	-11.3974
▁Listen	-11.3975
▁protocol	-11.3976
▁delivers	-11.3978
▁PRO	-11.3978
▁Pad	-11.3979
▁collections	-11.398
▁Kennedy	-11.398
▁Kat	-11.3981
▁rap	-11.3986
▁treating	-11.3986
▁vitamin	-11.3986
pr	-11.3988
**	-11.3988
EST	-11.3989
▁Clinic	-11.399
xi	-11.3993
▁entity	-11.3995
nny	-11.3998
▁warned	-11.4
▁destruction	-11.4001
ault	-11.4001
udge	-11.4003
▁Cru	-11.4003
▁Picture	-11.4005
▁Carol	-11.4006
eva	-11.4007
▁welfare	-11.401
▁Carter	-11.4011
▁arrange	-11.4012
▁Crystal	-11.4014
▁Cole	-11.4014
▁anchor	-11.4015
rat	-11.4018
such	-11.4018
▁Average	-11.4024
▁Hit	-11.4024
lies	-11.4024
season	-11.4025
nick	-11.4026
▁Physical	-11.4026
▁baths	-11.4027
▁scary	-11.4027
was	-11.4027
▁spell	-11.4027
▁Mall	-11.4027
▁Pot	-11.4032
LD	-11.4034
▁marketplace	-11.4038
▁Terry	-11.4038
▁GO	-11.4039
▁implementing	-11.4042
▁Drop	-11.4042
▁Sample	-11.4046
▁Articles	-11.4049
through	-11.4054
▁ranking	-11.4056
▁Method	-11.4058
▁counsel	-11.4059
▁portal	-11.4063
mic	-11.4068
▁basement	-11.4069
▁besides	-11.407
▁customized	-11.407
▁argued	-11.4071
▁workforce	-11.4071
Ar	-11.4072
▁guides	-11.4074
▁Baltimore	-11.4074
▁sake	-11.4077
come	-11.4078
▁lawsuit	-11.408
▁Recipe	-11.4081
▁aesthetic	-11.4084
▁dresses	-11.4088
ink	-11.4089
▁independence	-11.409
▁leverage	-11.4093
▁Ren	-11.4096
party	-11.4096
oke	-11.4097
▁documentary	-11.4097
▁hint	-11.4098
▁Fill	-11.4099
▁celebrating	-11.41
▁attachment	-11.4104
▁Emily	-11.4105
jun	-11.4106
chan	-11.4107
rah	-11.4108
ulate	-11.4109
▁minimize	-11.411
▁gently	-11.411
▁Franklin	-11.411
▁urge	-11.4111
RR	-11.4111
▁Mun	-11.4111
▁pest	-11.4112
unk	-11.4113
▁overwhelming	-11.4114
▁fought	-11.4115
▁Late	-11.4116
▁claiming	-11.4116
▁Organic	-11.4118
▁survived	-11.4119
▁Almost	-11.4126
▁Worth	-11.4126
▁Madison	-11.4127
▁trucks	-11.4129
aver	-11.413
eno	-11.4134
▁Scottish	-11.4138
▁Platform	-11.414
▁Saudi	-11.4141
▁Less	-11.4142
▁Feed	-11.4143
▁delighted	-11.4147
▁consecutive	-11.415
▁trauma	-11.415
▁Categories	-11.4151
▁lounge	-11.4151
▁rewards	-11.4152
▁Person	-11.4153
rine	-11.4153
▁calculated	-11.4153
▁cultures	-11.4156
▁Nation	-11.4156
▁nude	-11.4164
▁Statement	-11.4165
▁batteries	-11.4166
cas	-11.4167
▁rod	-11.417
▁Malaysia	-11.4171
▁EP	-11.4175
▁passenger	-11.4175
▁Stra	-11.4176
Mi	-11.4177
ush	-11.4181
▁Tool	-11.4182
fra	-11.4184
▁rotation	-11.4187
▁frames	-11.419
▁Looks	-11.419
▁Harvard	-11.419
▁acceptance	-11.4193
▁Toyota	-11.4195
▁diameter	-11.4195
▁Pla	-11.4196
▁cu	-11.4197
tors	-11.42
▁cluster	-11.4201
sar	-11.4201
▁designated	-11.4205
▁agricultural	-11.4205
UL	-11.4206
▁ghost	-11.4206
▁Ros	-11.4209
▁Finding	-11.4209
▁nonprofit	-11.4213
▁Egg	-11.4214
▁pasta	-11.4216
▁Jerry	-11.4218
Fa	-11.4219
green	-11.422
▁requiring	-11.4221
tus	-11.4221
ider	-11.423
▁achieving	-11.4231
▁reflects	-11.4231
▁Boys	-11.4233
▁Rate	-11.4233
▁Flat	-11.4235
▁departure	-11.4236
▁Favorite	-11.4236
ended	-11.4238
▁Jacob	-11.4241
▁crossed	-11.4242
▁beta	-11.4244
▁reminds	-11.4245
▁Arch	-11.4247
▁lasting	-11.4249
▁fer	-11.425
▁lineup	-11.4251
PT	-11.4253
ille	-11.4254
++	-11.4255
▁:-)	-11.4256
▁id	-11.426
▁boundaries	-11.4262
uv	-11.4262
▁shore	-11.4263
▁Sweden	-11.4266
▁Driver	-11.4268
▁colorful	-11.4268
▁silly	-11.427
LI	-11.4271
owned	-11.4271
▁Sta	-11.4273
mil	-11.4274
▁fails	-11.4276
▁Exam	-11.4278
color	-11.4278
▁earning	-11.4282
▁Rules	-11.4283
▁cartoon	-11.4283
▁jurisdiction	-11.4285
▁manufacture	-11.4287
▁vanilla	-11.4287
▁fireplace	-11.4288
▁Robinson	-11.4288
▁Upon	-11.4288
ving	-11.4289
▁Shu	-11.429
▁perception	-11.429
▁marine	-11.4294
▁Geo	-11.4302
▁valley	-11.4303
▁attendance	-11.4304
Last	-11.4304
▁seemingly	-11.4307
▁bonds	-11.4308
▁selecting	-11.4313
using	-11.4315
▁Br	-11.4317
▁ecosystem	-11.4317
▁Campbell	-11.4318
▁Kind	-11.4318
▁shield	-11.4319
▁Julie	-11.4319
Day	-11.432
ked	-11.4321
▁spam	-11.4322
▁Bri	-11.4322
▁dissertation	-11.4322
▁thirty	-11.4322
▁motorcycle	-11.4323
▁Leader	-11.4323
▁curve	-11.4323
▁bundle	-11.4324
▁directors	-11.4324
▁flooring	-11.4325
▁infections	-11.4326
live	-11.4326
▁stakeholders	-11.4329
SH	-11.433
▁Born	-11.433
▁wore	-11.4331
▁picks	-11.4332
writing	-11.4332
▁participated	-11.4336
▁rational	-11.4336
▁Stand	-11.4336
▁gardens	-11.4336
▁receipt	-11.4338
▁Row	-11.4338
▁Century	-11.4338
▁Eve	-11.4338
▁referring	-11.4339
fest	-11.4339
arch	-11.4341
▁abandoned	-11.4342
▁consult	-11.4342
▁pockets	-11.4346
▁LE	-11.4348
John	-11.4349
WA	-11.4349
▁cookie	-11.4351
▁paintings	-11.4352
▁paste	-11.4355
▁casinos	-11.4356
▁FIG	-11.4357
▁ridiculous	-11.436
▁Serve	-11.436
rac	-11.436
▁belong	-11.4361
lio	-11.4361
sum	-11.4361
CM	-11.4363
Add	-11.4368
▁HE	-11.4368
▁accepting	-11.4368
▁intake	-11.4368
▁appliances	-11.4368
self	-11.4368
▁innocent	-11.4369
▁sits	-11.4374
ees	-11.4376
▁Strategy	-11.4379
▁Liverpool	-11.4379
▁laboratory	-11.4379
▁Roger	-11.4379
▁Assessment	-11.438
▁Format	-11.438
▁Fitness	-11.4381
uh	-11.439
▁blank	-11.4391
▁epic	-11.4396
▁Allow	-11.4397
▁lung	-11.44
▁identifying	-11.4401
▁mayor	-11.4402
▁badly	-11.4403
shot	-11.4403
▁beaches	-11.4404
▁Hawk	-11.4406
▁Especially	-11.441
▁templates	-11.441
Posted	-11.4411
▁breed	-11.4412
▁airline	-11.4412
▁lbs	-11.4414
▁Faith	-11.4415
▁jack	-11.4421
▁Emma	-11.4422
▁Degree	-11.4425
▁Cake	-11.4432
each	-11.4435
▁promising	-11.4436
iel	-11.4436
▁puzzle	-11.4436
Back	-11.4436
▁vegan	-11.4438
▁Manual	-11.4438
▁Freedom	-11.4438
jpg	-11.4441
▁Near	-11.4442
▁veterans	-11.4445
▁innings	-11.4447
▁Parking	-11.445
meter	-11.4454
▁Prize	-11.4455
ire	-11.4457
▁compound	-11.4457
▁voices	-11.4458
▁essence	-11.4462
▁Zone	-11.4462
▁generator	-11.4462
▁Primary	-11.4462
ste	-11.4462
▁EC	-11.4464
▁GPS	-11.4467
▁confusion	-11.4467
▁optional	-11.447
lig	-11.4471
▁catalog	-11.4471
▁arise	-11.4473
▁intensity	-11.4475
▁Climate	-11.4477
▁declined	-11.4477
▁Mode	-11.4478
yes	-11.448
▁Cur	-11.4482
▁Lauren	-11.4484
system	-11.4487
▁sentiment	-11.4488
▁instances	-11.4489
HR	-11.4489
kel	-11.4489
▁Rice	-11.449
These	-11.4491
▁Train	-11.4492
▁centuries	-11.4493
▁travelling	-11.4496
▁attach	-11.4499
▁Specialist	-11.45
▁Native	-11.4502
▁Cable	-11.4504
▁Brain	-11.4504
▁apartments	-11.4504
▁fastest	-11.4505
▁Warren	-11.4505
▁wow	-11.4506
▁Success	-11.4507
▁minority	-11.4507
▁admin	-11.451
▁favour	-11.451
▁Kra	-11.4511
▁backed	-11.4513
▁camping	-11.4514
▁analytics	-11.4515
▁tick	-11.4518
▁elderly	-11.452
▁Perry	-11.4521
▁teens	-11.4521
mile	-11.4521
HP	-11.4521
▁Storm	-11.4521
ike	-11.4528
▁consulting	-11.4529
▁refuse	-11.453
▁lap	-11.4531
▁Wikipedia	-11.4535
▁suggesting	-11.4537
▁employ	-11.4538
▁uncomfortable	-11.454
▁loading	-11.454
▁permitted	-11.4542
▁Former	-11.4545
▁Baptist	-11.4545
▁Different	-11.4545
vor	-11.4546
▁mon	-11.4547
▁hop	-11.455
▁reportedly	-11.455
proof	-11.455
Art	-11.4553
▁Barry	-11.4554
▁Transfer	-11.4557
▁vegetable	-11.4558
▁suits	-11.4558
▁cement	-11.4559
action	-11.4559
mie	-11.456
▁Collins	-11.456
▁colored	-11.4562
▁Whit	-11.4563
▁den	-11.4568
NR	-11.457
▁operates	-11.457
▁Resource	-11.4572
▁swap	-11.4572
▁Universal	-11.4573
lex	-11.4574
▁throat	-11.4575
▁sons	-11.458
▁Nat	-11.4581
ically	-11.4581
▁DA	-11.4582
▁Million	-11.4585
outs	-11.4586
▁climbing	-11.4586
▁Pal	-11.4586
▁measuring	-11.4587
▁Therapy	-11.4587
▁glance	-11.4588
▁assumed	-11.4588
▁batch	-11.4589
▁meta	-11.4589
▁Military	-11.4592
VA	-11.4593
▁supplements	-11.4593
acy	-11.4595
▁Quote	-11.4596
open	-11.4596
cr	-11.4597
▁separated	-11.4597
▁stir	-11.4598
▁preferences	-11.46
▁ignored	-11.4602
▁Jimmy	-11.4604
▁consultant	-11.4607
▁Ce	-11.4608
▁converted	-11.461
▁Fr	-11.4611
▁likewise	-11.4611
lier	-11.4613
▁hockey	-11.4613
mal	-11.4614
▁dispute	-11.4616
UP	-11.4619
▁Statistics	-11.4619
▁Applications	-11.4619
▁defence	-11.4619
▁thorough	-11.4621
worm	-11.4621
SN	-11.4622
▁opponent	-11.4623
▁Pic	-11.4624
▁Zo	-11.4624
Or	-11.4625
anti	-11.4628
▁contacted	-11.4632
MU	-11.4633
▁Sue	-11.4633
▁Craft	-11.4634
▁Khan	-11.4634
max	-11.4634
▁Browse	-11.4635
▁influenced	-11.4639
▁pollution	-11.464
▁Teacher	-11.464
▁Poly	-11.464
▁outer	-11.4644
▁collaborative	-11.4645
▁Conclusion	-11.4645
▁Labour	-11.4646
▁experiments	-11.4648
▁Pictures	-11.4649
▁Past	-11.465
▁manufactured	-11.4652
▁emerge	-11.4653
▁rope	-11.4656
▁Grove	-11.4657
Please	-11.4658
bat	-11.4661
▁Engineer	-11.4662
▁surgical	-11.4663
▁forums	-11.4663
▁Lots	-11.4663
▁Dubai	-11.4667
▁grave	-11.4667
vic	-11.4667
▁iconic	-11.4669
pel	-11.467
▁dip	-11.467
CL	-11.467
▁glory	-11.4672
▁varied	-11.4672
brook	-11.4672
▁Commerce	-11.4673
have	-11.4674
▁bri	-11.4674
▁ethical	-11.4675
cept	-11.4675
cum	-11.4675
▁cited	-11.4677
▁syndrome	-11.4677
▁pill	-11.4678
▁Philippines	-11.4681
▁thumb	-11.4683
▁Partner	-11.4684
▁filters	-11.4684
▁lid	-11.4684
keeper	-11.4686
▁Operations	-11.4687
▁wiki	-11.4688
▁fr	-11.4689
uke	-11.4693
▁Pinterest	-11.4695
iki	-11.4696
▁Sab	-11.4696
▁footage	-11.4698
▁qualities	-11.4698
▁jeans	-11.4698
▁Historical	-11.4703
▁Bird	-11.4704
▁Gro	-11.4705
▁fulfill	-11.4706
▁SI	-11.4706
atic	-11.4707
▁versatile	-11.4709
block	-11.4709
▁Summit	-11.4709
▁honour	-11.4709
hoo	-11.4709
▁utilized	-11.471
▁gig	-11.4711
kes	-11.4712
▁lamp	-11.4714
▁Thr	-11.4714
anna	-11.4715
▁diamond	-11.4715
▁assists	-11.4716
▁mutual	-11.4716
▁jumped	-11.4718
▁unlimited	-11.472
▁drew	-11.472
emia	-11.4721
▁Teaching	-11.4723
▁triple	-11.4724
▁Vehicle	-11.4725
▁compelling	-11.4725
▁conviction	-11.4726
ponent	-11.4726
IO	-11.4726
▁serial	-11.4731
▁Au	-11.4731
Ta	-11.4732
▁Archives	-11.4734
▁agriculture	-11.4735
EX	-11.4736
▁lightweight	-11.4737
▁Potter	-11.4738
mers	-11.4739
▁buzz	-11.4746
▁lime	-11.4747
▁contacts	-11.4748
rio	-11.4748
▁Located	-11.4749
▁rat	-11.475
▁routes	-11.4751
▁Cra	-11.4751
▁reporter	-11.4753
▁basket	-11.4755
El	-11.4756
▁penis	-11.4756
▁float	-11.4756
▁plugin	-11.4757
▁premier	-11.476
▁pipeline	-11.476
NT	-11.4761
lyn	-11.4761
▁harmful	-11.4763
dem	-11.4763
▁snack	-11.4764
▁dozens	-11.4764
ech	-11.4764
▁waist	-11.4765
▁Nevertheless	-11.4768
▁steep	-11.4768
▁developments	-11.477
▁Move	-11.4772
▁Butter	-11.4773
▁cre	-11.4773
▁treasure	-11.4775
▁variation	-11.4775
▁corruption	-11.4775
▁Ukraine	-11.4778
▁isolated	-11.478
▁nest	-11.4782
leg	-11.4783
▁tasty	-11.4784
▁Bishop	-11.4784
▁wings	-11.4785
▁ethnic	-11.4786
▁disappear	-11.4788
ema	-11.4789
▁literary	-11.4789
▁eastern	-11.4789
>>	-11.4789
▁lace	-11.479
uni	-11.479
▁Marie	-11.4791
ancy	-11.4791
▁simultaneously	-11.4791
▁heal	-11.4792
▁timely	-11.4792
▁SEC	-11.4794
▁faithful	-11.4794
▁deciding	-11.4794
▁Douglas	-11.4794
▁addressing	-11.4796
▁restricted	-11.4797
ogen	-11.4797
lent	-11.4798
els	-11.4799
▁Technologies	-11.48
▁Jazz	-11.48
▁Sara	-11.4801
▁ext	-11.4802
▁ranks	-11.4803
▁cents	-11.4803
▁Written	-11.4807
erie	-11.4807
▁branches	-11.4808
▁spark	-11.4808
▁san	-11.4809
▁Campus	-11.481
pass	-11.4812
▁shipped	-11.4812
▁Sto	-11.4813
▁***	-11.4815
▁Adobe	-11.4816
▁simulation	-11.4816
▁mag	-11.4817
mid	-11.4819
chy	-11.4821
ination	-11.4823
▁wound	-11.4824
▁stake	-11.4825
PD	-11.4825
▁annually	-11.4826
oe	-11.4826
▁appreciation	-11.4827
▁unemployment	-11.4827
▁Sheet	-11.4828
▁Contract	-11.483
ept	-11.4832
▁facebook	-11.4832
▁Bat	-11.4832
▁pal	-11.4833
▁Cir	-11.4834
▁towns	-11.4834
▁impacts	-11.4836
ivity	-11.4836
▁countless	-11.4837
ried	-11.4839
▁Explore	-11.484
▁Gear	-11.484
▁Political	-11.4843
▁Wash	-11.4846
▁tunnel	-11.4848
▁inclusion	-11.4851
▁damages	-11.4852
bro	-11.4853
▁delicate	-11.4854
▁prints	-11.4854
▁mum	-11.4856
▁absorb	-11.486
check	-11.4862
▁libraries	-11.4864
▁Orlando	-11.4864
▁Loss	-11.4866
▁Pri	-11.4867
bn	-11.4867
▁FDA	-11.4868
books	-11.4868
▁collar	-11.4868
▁te	-11.4868
olo	-11.4869
▁Truth	-11.4873
▁Seat	-11.4874
▁SM	-11.4875
▁transparent	-11.4875
▁cheat	-11.488
▁Partners	-11.4881
▁Pittsburgh	-11.4882
▁Someone	-11.4882
▁bullet	-11.4882
▁seeks	-11.4883
▁Marshall	-11.4886
▁satisfy	-11.4887
pad	-11.4888
▁TH	-11.4888
pes	-11.4891
▁testimony	-11.4891
▁descend	-11.4891
shop	-11.4892
▁roller	-11.4893
▁anticipated	-11.4893
Sp	-11.4895
serv	-11.4901
▁ballot	-11.4901
MENT	-11.4905
▁distinction	-11.4908
▁Swiss	-11.4908
▁ties	-11.4913
▁holder	-11.4914
Net	-11.4916
▁Ready	-11.4917
▁courage	-11.4918
▁sized	-11.4919
▁Switch	-11.4921
▁Qua	-11.4922
▁hammer	-11.4924
▁restoration	-11.4924
cover	-11.4926
borough	-11.4929
▁installing	-11.493
WS	-11.4931
▁Hum	-11.4931
hai	-11.4933
▁voltage	-11.4935
▁mechanisms	-11.4936
▁acute	-11.4938
▁labels	-11.4938
▁Walter	-11.4941
▁Mah	-11.4942
▁secretary	-11.4943
▁complexity	-11.4943
▁Obviously	-11.4943
gli	-11.4945
ces	-11.4945
▁genes	-11.4945
▁backyard	-11.4947
▁appealing	-11.4948
▁leap	-11.4948
fusion	-11.4948
▁Medicare	-11.4951
▁grades	-11.4953
▁examined	-11.4955
▁spill	-11.4955
▁controversial	-11.4957
▁Lip	-11.4957
▁Thailand	-11.4958
wire	-11.4959
▁UC	-11.4959
▁costume	-11.496
▁vet	-11.496
▁Developer	-11.496
▁meditation	-11.4962
Some	-11.4963
▁wallet	-11.4963
▁Agent	-11.4964
▁hack	-11.4964
▁Hen	-11.4964
▁invested	-11.4966
▁attributes	-11.4967
▁judges	-11.4971
▁wheat	-11.4974
▁undergraduate	-11.4974
track	-11.4975
▁Nancy	-11.4976
▁tra	-11.4977
▁Jamie	-11.4977
▁decreased	-11.498
uda	-11.4983
▁Tyler	-11.4985
▁devoted	-11.4987
▁demanding	-11.4988
▁downloaded	-11.499
▁pumpkin	-11.4992
▁Ski	-11.4994
▁Lost	-11.4994
▁Lower	-11.4994
▁computing	-11.4995
▁determining	-11.4995
zing	-11.4996
▁Princess	-11.4997
▁classified	-11.4998
▁specifications	-11.4998
▁Keith	-11.5001
▁flavors	-11.5003
▁Advertisement	-11.5005
TR	-11.5005
▁mineral	-11.5007
▁emerged	-11.5008
▁withdrawal	-11.5009
▁Netflix	-11.5011
▁automated	-11.5014
eek	-11.5017
▁Knowledge	-11.5017
TY	-11.5017
mir	-11.5019
▁Chu	-11.5019
stage	-11.502
▁readily	-11.5021
▁touched	-11.5022
▁excellence	-11.5022
▁graduation	-11.5022
END	-11.5023
▁kidney	-11.5024
▁Lar	-11.5025
▁Tip	-11.5025
▁convince	-11.5027
▁Rated	-11.5029
▁poet	-11.503
position	-11.503
lap	-11.5031
▁replacing	-11.5033
▁applicants	-11.5034
▁Thi	-11.5034
▁closest	-11.5035
▁Prices	-11.5037
▁beating	-11.5037
▁oak	-11.5037
▁cor	-11.5038
▁Sounds	-11.5039
▁Fel	-11.5039
▁Psychology	-11.5039
▁chemistry	-11.5041
▁racial	-11.5042
MM	-11.5043
▁garbage	-11.5044
▁Launch	-11.5045
▁consume	-11.5046
▁submission	-11.5047
map	-11.5048
▁receives	-11.505
▁stall	-11.5051
lift	-11.5051
rit	-11.5051
two	-11.5052
▁derived	-11.5054
ander	-11.5055
▁Relations	-11.5055
Let	-11.5056
▁Arthur	-11.5056
EG	-11.5056
▁slim	-11.5056
▁presentations	-11.5057
bag	-11.5057
▁priorities	-11.5058
▁partial	-11.5058
hem	-11.5058
▁classical	-11.5059
▁Mining	-11.5062
ines	-11.5064
▁CNN	-11.5064
▁folk	-11.5067
▁thankful	-11.5068
▁gradually	-11.5069
▁dimension	-11.5072
▁warehouse	-11.5072
▁Example	-11.5072
inter	-11.5074
▁Eat	-11.5074
▁tweet	-11.5074
▁BO	-11.5075
▁enabling	-11.5077
sex	-11.5078
arian	-11.5079
▁linear	-11.5081
▁tray	-11.5081
lis	-11.5082
▁shoulders	-11.5082
′	-11.5083
▁Netherlands	-11.5083
rel	-11.5084
▁skip	-11.5085
▁annoying	-11.5086
▁Cri	-11.5087
▁authorized	-11.5087
ered	-11.5088
▁mattress	-11.5089
aga	-11.5091
▁donate	-11.5092
▁spec	-11.5093
▁corporations	-11.5094
▁confirmation	-11.5098
▁Tag	-11.5099
DO	-11.5101
▁Evans	-11.5101
▁geo	-11.5105
▁complain	-11.5106
ILL	-11.5107
▁trails	-11.5109
▁tends	-11.5109
ics	-11.511
▁mice	-11.511
▁SH	-11.511
▁PE	-11.511
▁Campaign	-11.5111
▁threatened	-11.5112
▁Lang	-11.5112
▁Bike	-11.5113
▁qua	-11.5115
hit	-11.5117
▁xx	-11.5117
▁jar	-11.5117
▁fridge	-11.5117
▁Archive	-11.5119
▁coating	-11.5119
used	-11.512
▁niche	-11.512
▁ensures	-11.5121
▁Soviet	-11.5122
▁Bet	-11.5123
▁Alice	-11.5123
▁surfaces	-11.5123
tine	-11.5125
▁patience	-11.5127
▁tomato	-11.5128
▁Mus	-11.5128
▁allegedly	-11.5129
▁Dor	-11.513
▁straightforward	-11.5133
▁audiences	-11.5136
▁marry	-11.5136
▁fate	-11.5136
▁ES	-11.5136
▁bones	-11.5138
HD	-11.514
▁dumb	-11.5141
▁protective	-11.5142
▁drum	-11.5146
sel	-11.5147
▁thereby	-11.5149
▁Cotton	-11.515
tens	-11.5151
▁Thai	-11.5152
▁rhythm	-11.5152
ced	-11.5152
▁Wait	-11.5154
▁Hack	-11.5154
▁publisher	-11.5154
▁cognitive	-11.5155
ied	-11.5156
▁pat	-11.5157
▁Healthy	-11.5161
▁Xbox	-11.5161
▁makers	-11.5161
▁hoped	-11.5163
bot	-11.5164
ured	-11.5166
▁roster	-11.5167
makers	-11.5168
▁Cart	-11.5169
▁highlighted	-11.5169
▁treats	-11.5169
▁eager	-11.517
▁TA	-11.5171
▁RO	-11.5174
▁seasonal	-11.5175
▁pork	-11.5177
▁Tor	-11.5177
▁surgeon	-11.5177
▁Murray	-11.5178
conf	-11.518
pic	-11.518
eye	-11.518
▁reduces	-11.5182
▁outdoors	-11.5183
▁Running	-11.5184
▁brave	-11.5187
▁blocked	-11.5187
▁affecting	-11.5187
▁TR	-11.5188
▁Bun	-11.5191
▁ruled	-11.5194
▁propose	-11.5195
▁supportive	-11.5195
▁Knight	-11.5195
got	-11.5196
▁ti	-11.5196
▁toxic	-11.5197
▁GB	-11.5197
▁daughters	-11.5198
▁Others	-11.5198
▁tire	-11.5199
▁renovation	-11.52
pet	-11.5201
▁transit	-11.5203
▁Cla	-11.5206
▁Les	-11.5209
than	-11.5209
Part	-11.521
▁Client	-11.5213
▁crossing	-11.5214
▁violation	-11.5216
▁sustainability	-11.5217
▁NASA	-11.5218
▁tourists	-11.5218
hoe	-11.522
▁reflected	-11.5221
▁concentrate	-11.5222
▁frustration	-11.5222
▁Soon	-11.5222
▁Pol	-11.5222
▁supervisor	-11.5222
▁accent	-11.5223
itude	-11.5225
▁Gra	-11.5228
▁Faculty	-11.5233
▁psychology	-11.5233
▁reside	-11.5235
AGE	-11.5235
▁variations	-11.5237
▁Eco	-11.5239
minded	-11.5241
▁sneak	-11.5241
SON	-11.5243
▁UP	-11.5244
▁Growth	-11.5245
▁adverse	-11.5245
att	-11.5247
▁lovers	-11.5248
▁Than	-11.5249
TU	-11.525
▁shades	-11.5251
▁rub	-11.5252
▁lib	-11.5253
nc	-11.5255
▁underneath	-11.5256
▁spacious	-11.5256
▁informative	-11.5257
▁populations	-11.5259
▁magnetic	-11.5259
mber	-11.526
edge	-11.5261
▁hiking	-11.5262
▁Certificate	-11.5263
▁visitor	-11.5265
▁charming	-11.5265
▁Parker	-11.5267
▁journalist	-11.5267
wind	-11.5268
▁Romney	-11.5273
▁vector	-11.5273
▁attacked	-11.5274
▁obligation	-11.5274
▁solving	-11.5276
OK	-11.5279
▁separately	-11.5279
▁alien	-11.5279
▁suspended	-11.528
▁stats	-11.5282
▁Publication	-11.5283
share	-11.5284
▁compromise	-11.5284
▁Paint	-11.5286
▁revision	-11.5287
▁momentum	-11.5287
Are	-11.5288
BO	-11.529
ALL	-11.529
fin	-11.5291
▁Theater	-11.5291
▁Pu	-11.5292
▁Pope	-11.5297
▁Spin	-11.5297
▁pussy	-11.5307
▁Liberty	-11.5307
Na	-11.5307
▁mere	-11.531
▁Mississippi	-11.5312
▁separation	-11.5312
▁Template	-11.5312
lou	-11.5313
▁RT	-11.5314
▁Albert	-11.5315
ways	-11.5319
word	-11.5319
▁Chan	-11.5322
ying	-11.5323
▁shelves	-11.5324
▁Murphy	-11.5324
▁potato	-11.5325
▁cinema	-11.5328
▁declare	-11.5329
▁Circuit	-11.5329
▁Same	-11.533
▁Pros	-11.5331
OUR	-11.5332
▁royal	-11.5334
vision	-11.5335
▁Mason	-11.5335
Bar	-11.5335
▁dock	-11.5335
▁Gri	-11.5336
▁ge	-11.5336
▁colleges	-11.5341
▁Steam	-11.5343
▁reject	-11.5346
▁Excel	-11.5346
▁CON	-11.5348
bing	-11.5348
▁ordering	-11.5348
hart	-11.5348
▁emotion	-11.5349
pat	-11.5351
MD	-11.5352
▁Honey	-11.5354
▁organ	-11.5355
▁warming	-11.5362
▁Programs	-11.5363
▁alternate	-11.5363
COM	-11.5364
▁tricks	-11.5366
click	-11.5367
here	-11.5367
mouth	-11.5367
▁Calendar	-11.5369
▁Economics	-11.5371
Sha	-11.5371
▁starter	-11.5373
▁teaches	-11.5374
▁Connecticut	-11.5375
▁THIS	-11.5375
▁conscious	-11.5376
bor	-11.5376
▁trace	-11.5378
▁Bru	-11.5382
▁Chef	-11.5382
▁resistant	-11.5386
▁oils	-11.5389
▁fears	-11.5392
▁reactions	-11.5392
pid	-11.5394
VC	-11.5398
▁negotiations	-11.5399
▁Healthcare	-11.5399
IGHT	-11.5401
▁Chelsea	-11.5403
▁Hunt	-11.5404
▁thrilled	-11.5406
door	-11.5406
▁nowhere	-11.5408
▁Tokyo	-11.5409
▁attractions	-11.5413
▁Ian	-11.5414
▁Mod	-11.5414
▁districts	-11.5416
▁permits	-11.5419
▁Funeral	-11.542
▁caution	-11.542
▁Rap	-11.542
▁li	-11.5422
mme	-11.5422
▁wool	-11.5423
▁rev	-11.5424
▁Indonesia	-11.5425
▁repeatedly	-11.5425
▁Buffalo	-11.5426
▁Mitchell	-11.5426
▁wrist	-11.5427
lab	-11.5428
rod	-11.5429
▁LP	-11.543
▁browsing	-11.5432
▁opponents	-11.5433
ule	-11.5433
▁honored	-11.5434
▁homemade	-11.5435
▁RSS	-11.5435
▁Bou	-11.5437
▁Piece	-11.5437
when	-11.5437
ante	-11.5438
▁incorporated	-11.5441
▁easiest	-11.5443
▁GOP	-11.5446
▁prayers	-11.5447
▁wondered	-11.5447
fl	-11.5449
ill	-11.5449
▁backpack	-11.5449
▁Anonymous	-11.545
▁BY	-11.5452
FI	-11.5453
▁aging	-11.5453
▁bankruptcy	-11.5455
▁flesh	-11.5455
value	-11.5455
▁goodness	-11.5456
uz	-11.5457
▁Fin	-11.5458
▁Crown	-11.546
▁Foot	-11.5461
▁ink	-11.5462
▁query	-11.5462
▁educated	-11.5462
▁predicted	-11.5463
▁Imagine	-11.5463
▁Fig	-11.5465
HER	-11.5465
▁Pie	-11.5467
▁agreements	-11.5468
▁OP	-11.5469
▁Syn	-11.5469
Tech	-11.5469
ota	-11.547
▁Helen	-11.547
▁lane	-11.547
▁panic	-11.547
▁fitted	-11.5473
▁Maha	-11.5474
gie	-11.5474
▁neighbor	-11.5474
▁tiles	-11.5477
▁chef	-11.5477
▁Pearl	-11.5477
▁consistency	-11.5478
▁buried	-11.5478
▁unnecessary	-11.5478
▁continuously	-11.548
▁gi	-11.5481
▁Burn	-11.5482
▁Bedroom	-11.5484
Post	-11.5484
▁dentist	-11.5485
▁attracted	-11.5489
▁SF	-11.549
▁pixels	-11.549
pit	-11.5492
▁AA	-11.5493
▁explaining	-11.5494
▁nationwide	-11.5496
▁screens	-11.5497
ras	-11.5497
Good	-11.5499
▁Reference	-11.5499
kind	-11.55
▁rolls	-11.5501
other	-11.5503
▁alumni	-11.5507
▁Dining	-11.5509
▁reasonably	-11.5511
▁Pine	-11.5515
dimensional	-11.5515
ffer	-11.5516
zel	-11.5518
▁uncertainty	-11.5519
▁dec	-11.5522
▁entities	-11.5524
depth	-11.5525
▁rounds	-11.5526
▁lobby	-11.5527
guard	-11.5529
▁mysterious	-11.5529
▁contributing	-11.5529
▁streak	-11.5529
▁IBM	-11.553
▁Palace	-11.553
▁Around	-11.5531
▁Host	-11.5532
cost	-11.5534
▁Miles	-11.5534
▁Cards	-11.5534
▁grasp	-11.5535
▁Louisiana	-11.5535
▁neat	-11.5536
▁Kill	-11.5538
standing	-11.5544
▁broader	-11.5546
force	-11.5547
▁BB	-11.5547
▁EV	-11.555
AF	-11.5551
▁hung	-11.5555
▁Pain	-11.5557
▁surveillance	-11.5558
▁heater	-11.5559
II	-11.5561
▁antique	-11.5563
▁dealt	-11.5564
▁tribute	-11.5564
▁colon	-11.5565
gun	-11.5572
▁Either	-11.5576
▁pc	-11.5576
▁Prof	-11.5577
author	-11.5577
▁ore	-11.558
▁eco	-11.558
chu	-11.5581
▁Corn	-11.5581
igan	-11.5583
▁preventing	-11.5584
tting	-11.5585
▁Delta	-11.5586
▁Spi	-11.5586
▁breach	-11.5586
▁loyal	-11.5587
▁optimization	-11.5587
▁Opera	-11.5589
▁banner	-11.5589
▁algorithm	-11.5589
very	-11.5591
cad	-11.5592
£	-11.5593
▁collapse	-11.5594
▁assure	-11.5596
▁Height	-11.5598
operative	-11.5598
▁offerings	-11.5598
▁guided	-11.5599
BI	-11.5601
udi	-11.5602
▁Cruise	-11.5603
▁punishment	-11.5606
▁kinda	-11.5609
▁specialty	-11.561
▁Kent	-11.561
▁pose	-11.5611
▁Keywords	-11.5613
▁cater	-11.5615
▁WiFi	-11.5617
far	-11.5618
▁vendor	-11.5619
▁Topics	-11.5619
▁Includes	-11.5623
▁rape	-11.5623
▁Horn	-11.5624
human	-11.5625
cons	-11.5625
▁Wonder	-11.5629
fix	-11.563
▁sooner	-11.5631
blogger	-11.5631
▁establishing	-11.5636
▁dial	-11.5637
Work	-11.5638
illo	-11.5639
▁Reports	-11.564
▁divine	-11.564
▁screw	-11.5644
▁refrigerator	-11.5646
▁disabilities	-11.5646
▁preference	-11.5646
dding	-11.5647
data	-11.5648
▁Manhattan	-11.5652
claim	-11.5652
pen	-11.5653
▁bucket	-11.5653
▁Heaven	-11.5654
vine	-11.5655
▁Shin	-11.5656
▁reaches	-11.5657
dr	-11.5657
▁Intelligence	-11.5657
▁orientation	-11.5657
▁Election	-11.5657
▁Greater	-11.5658
▁Route	-11.5659
▁seventh	-11.5662
nell	-11.5663
oxy	-11.5664
▁Managing	-11.5665
▁entrepreneurs	-11.5665
▁EM	-11.5666
oy	-11.5667
▁holy	-11.5668
▁laughing	-11.5669
▁dated	-11.5669
▁kingdom	-11.567
▁junk	-11.5671
left	-11.5673
fect	-11.5674
▁Bug	-11.5675
▁charter	-11.5675
▁automobile	-11.5675
▁lighter	-11.5675
▁YOUR	-11.5678
ista	-11.5678
▁mothers	-11.568
▁GP	-11.5681
▁Samuel	-11.5681
▁ugly	-11.5681
▁approve	-11.5682
▁dominant	-11.5683
lea	-11.5683
pac	-11.5685
▁fond	-11.5685
▁crying	-11.5686
▁valued	-11.5687
▁contractors	-11.5689
logy	-11.569
ologist	-11.569
▁vocal	-11.5695
sson	-11.57
▁Tweet	-11.5701
▁LO	-11.5703
▁broker	-11.5704
▁educate	-11.5705
▁presenting	-11.5707
▁Bathroom	-11.5709
ifies	-11.5709
tch	-11.5709
▁Path	-11.5712
inal	-11.5714
▁surprisingly	-11.5717
▁physics	-11.5719
cess	-11.5719
▁struggled	-11.5719
▁Avoid	-11.5719
▁charts	-11.5721
▁Dinner	-11.5723
▁Temp	-11.5724
▁affair	-11.5727
▁creatures	-11.5728
▁Subscribe	-11.5728
sley	-11.573
▁leak	-11.573
eu	-11.5731
suit	-11.5734
▁instructor	-11.5735
▁stones	-11.5735
▁Upper	-11.5737
▁Jen	-11.5737
rail	-11.5739
▁lined	-11.5739
▁TN	-11.5739
▁underground	-11.5743
▁optical	-11.5752
▁boom	-11.5752
▁tumor	-11.5753
TF	-11.5757
▁prospective	-11.5757
▁pr	-11.5757
▁gaining	-11.5759
▁CBS	-11.5759
UC	-11.5761
▁monster	-11.5763
▁traditions	-11.5764
▁deserves	-11.5765
inc	-11.5765
▁floating	-11.5768
Ja	-11.5768
plus	-11.5769
▁specify	-11.5769
▁Mars	-11.577
ality	-11.577
▁Directions	-11.5771
▁bicycle	-11.5775
▁comparable	-11.5776
izes	-11.5777
▁Players	-11.578
▁arrow	-11.578
Here	-11.578
▁turkey	-11.5781
rent	-11.5782
▁ebook	-11.5784
▁darkness	-11.5786
▁Character	-11.5787
▁Amendment	-11.5787
▁cannabis	-11.5787
People	-11.5788
▁united	-11.579
umble	-11.5792
▁Opening	-11.5793
lac	-11.5795
ASS	-11.5795
▁CE	-11.5796
coming	-11.5796
▁Weekly	-11.5796
mos	-11.5796
lene	-11.5798
RM	-11.5798
▁Billy	-11.58
▁Kyle	-11.58
▁tires	-11.5801
▁References	-11.5802
▁Neu	-11.5805
▁corporation	-11.5805
▁institutional	-11.5809
▁twitter	-11.581
▁formats	-11.5811
▁Command	-11.5813
•	-11.5819
building	-11.5819
▁approached	-11.582
▁Athletic	-11.5823
dd	-11.5823
▁grandmother	-11.5823
▁pointing	-11.5824
▁donated	-11.5825
▁Volunteer	-11.5827
▁surf	-11.5827
▁gal	-11.5829
▁booth	-11.5829
▁Medium	-11.583
▁decorating	-11.583
▁Kid	-11.5832
SB	-11.5833
ckle	-11.5833
NI	-11.5834
▁healthier	-11.5835
dent	-11.5836
▁Electronic	-11.5836
▁Guardian	-11.5837
▁critics	-11.5838
▁investor	-11.5838
▁bare	-11.5838
version	-11.5839
▁Circle	-11.5841
▁legally	-11.5841
▁Own	-11.5842
Who	-11.5844
Ch	-11.5845
▁attorneys	-11.5846
dot	-11.5847
▁duck	-11.5847
▁stays	-11.5847
rom	-11.5849
▁peers	-11.585
wel	-11.5852
▁Yahoo	-11.5853
▁Dental	-11.5853
▁meter	-11.5853
▁NCAA	-11.5853
▁analyst	-11.5854
▁Rad	-11.5854
▁sketch	-11.5854
smith	-11.5856
▁ISO	-11.5858
▁pencil	-11.5859
▁imaging	-11.5859
fur	-11.5859
ground	-11.5862
▁Tam	-11.5864
▁recycling	-11.5865
stan	-11.5869
▁accidents	-11.587
▁Caribbean	-11.587
▁varieties	-11.587
▁condo	-11.5873
▁containers	-11.5874
stream	-11.5876
▁Nutrition	-11.5876
▁governance	-11.5877
▁landed	-11.5877
▁quoted	-11.5878
▁deployment	-11.5879
▁barrier	-11.5879
duct	-11.588
tree	-11.5881
▁Points	-11.5882
▁infected	-11.5884
▁bubble	-11.5884
▁vinyl	-11.5885
los	-11.5886
▁ports	-11.5888
▁sword	-11.589
▁habitat	-11.589
mod	-11.5893
▁executed	-11.5893
▁twelve	-11.5894
▁clue	-11.5896
▁Bee	-11.5898
▁waited	-11.59
▁Trading	-11.5901
talk	-11.5902
▁cave	-11.5904
web	-11.5904
▁Parents	-11.5905
▁welcomed	-11.5906
▁forex	-11.5906
▁Hence	-11.5908
dam	-11.5911
▁pros	-11.5912
▁contrary	-11.5913
▁toddler	-11.5913
itz	-11.5914
rest	-11.5915
▁indicator	-11.5915
▁dessert	-11.5915
▁regarded	-11.5916
▁cosmetic	-11.5918
▁pursuit	-11.5918
▁Dimensions	-11.592
▁Jake	-11.5921
looking	-11.5921
▁resolved	-11.5928
exp	-11.5929
▁harvest	-11.5929
▁xxx	-11.593
▁pulse	-11.5932
▁Rec	-11.5933
rill	-11.5933
▁nurses	-11.5936
▁responsive	-11.5936
▁stadium	-11.5936
▁Revolution	-11.5937
▁Discount	-11.5937
▁Singh	-11.5937
▁ce	-11.5937
▁kicked	-11.5938
logist	-11.5939
->	-11.594
▁Fra	-11.5941
▁widespread	-11.5943
▁execute	-11.5943
hall	-11.5946
.</	-11.5947
sil	-11.5948
▁Nevada	-11.5948
▁Mario	-11.5949
▁careers	-11.5951
▁tuned	-11.5951
▁generating	-11.5951
▁refreshing	-11.5952
▁respected	-11.5957
▁Cer	-11.5957
▁detected	-11.5958
▁Wide	-11.5961
▁wanna	-11.5961
▁Hero	-11.5962
▁combo	-11.5963
▁Broadway	-11.5963
▁neo	-11.5964
iii	-11.5966
▁Lou	-11.597
wer	-11.597
▁Polish	-11.5972
▁suited	-11.5972
▁Recommended	-11.5972
▁mobility	-11.5973
▁Pretty	-11.5973
▁sq	-11.5976
lines	-11.5976
his	-11.5976
alia	-11.5977
▁Female	-11.5979
▁strikes	-11.5979
▁bolt	-11.5979
▁Var	-11.598
yne	-11.5982
▁shocked	-11.5983
▁iTunes	-11.5985
▁revenues	-11.5985
▁temp	-11.5986
rm	-11.5986
hawk	-11.5986
▁defeated	-11.5987
▁lover	-11.5989
▁Costa	-11.5994
aria	-11.5994
▁SQL	-11.5995
▁Vintage	-11.5995
roy	-11.5996
▁migration	-11.5997
▁Fre	-11.5997
▁adventures	-11.6007
▁Shore	-11.6007
▁seating	-11.6008
▁cleaner	-11.601
▁wh	-11.601
▁Trial	-11.6011
▁cone	-11.6012
▁challenged	-11.6012
▁ankle	-11.6014
▁Boat	-11.6017
section	-11.6018
▁coupons	-11.6019
▁Planet	-11.602
BE	-11.6022
bul	-11.6024
▁Tab	-11.6024
▁crisp	-11.6024
▁CP	-11.6026
▁bugs	-11.6026
Life	-11.6026
Dr	-11.6027
▁MN	-11.6027
▁journalists	-11.6027
ain	-11.6029
▁psycho	-11.6032
▁Internal	-11.6033
▁diagnostic	-11.6033
▁Featured	-11.6034
Ca	-11.6035
▁Tampa	-11.6035
▁cafe	-11.6039
▁static	-11.6039
glo	-11.6041
▁perceived	-11.6043
▁beside	-11.6043
▁Kor	-11.6045
▁breathe	-11.6045
hon	-11.6045
▁bitter	-11.6046
▁Scholarship	-11.6046
▁disclosure	-11.605
ago	-11.6053
▁Multiple	-11.6056
ANT	-11.6056
▁bias	-11.6057
▁deny	-11.6057
▁terrific	-11.6057
▁Supply	-11.6058
▁automation	-11.6058
▁Background	-11.6058
▁Brandon	-11.6058
▁Flag	-11.6062
mble	-11.6062
▁modest	-11.6064
ific	-11.6064
▁stating	-11.6065
UT	-11.6068
▁silk	-11.6068
▁Lynn	-11.6068
▁Th	-11.607
▁Lan	-11.6071
▁divide	-11.6071
osh	-11.6072
▁hood	-11.6073
driven	-11.6075
▁pickup	-11.6076
▁farming	-11.6078
▁drunk	-11.6079
▁obtaining	-11.6079
Click	-11.608
bur	-11.6081
▁PI	-11.6085
▁Otherwise	-11.6089
▁blogger	-11.609
▁occasional	-11.6091
▁->	-11.6094
ifier	-11.6094
▁theoretical	-11.6094
▁thrive	-11.6095
▁angel	-11.6095
ska	-11.6097
photo	-11.6098
▁Apparently	-11.61
▁Doug	-11.6101
bee	-11.6101
▁MY	-11.6101
▁proceedings	-11.6101
▁Sil	-11.6102
▁Essential	-11.6104
▁tropical	-11.6106
▁therapeutic	-11.6107
▁humble	-11.6113
▁GE	-11.6114
▁distinctive	-11.6115
▁modules	-11.6115
▁Poll	-11.6115
▁Pub	-11.6116
izz	-11.6117
▁costly	-11.6118
▁venues	-11.6118
▁sponsor	-11.6118
▁cuisine	-11.6119
▁spokesman	-11.6119
mmer	-11.6119
▁constitutional	-11.612
▁Wireless	-11.612
▁wellness	-11.6122
▁exploit	-11.6125
▁dedication	-11.6125
▁sunny	-11.6128
IST	-11.613
▁mock	-11.6131
▁cheek	-11.6131
▁Vista	-11.6132
▁renewable	-11.6132
▁Fisher	-11.6133
▁onions	-11.6134
▁dare	-11.6134
▁Ted	-11.6135
nik	-11.6135
▁bride	-11.6138
▁Understanding	-11.6141
▁rival	-11.6144
▁adjusted	-11.6144
Find	-11.6146
▁Mine	-11.6147
▁Imp	-11.6148
▁deemed	-11.6148
▁sheep	-11.6149
▁Cafe	-11.6149
▁Fortunately	-11.6149
▁verse	-11.6149
▁dramatically	-11.615
▁legendary	-11.6156
▁recipient	-11.6157
▁pitcher	-11.6157
phan	-11.6159
▁Expert	-11.616
▁Frame	-11.616
▁custody	-11.6162
ao	-11.6162
▁macro	-11.6163
▁SB	-11.6164
▁Role	-11.6166
aught	-11.6167
▁unlock	-11.6168
▁Educational	-11.6169
▁outline	-11.6169
▁Factor	-11.6169
thing	-11.617
▁rig	-11.6173
▁albums	-11.6174
▁blessing	-11.6174
▁Federation	-11.6174
▁haul	-11.6176
▁Position	-11.618
▁recruiting	-11.618
▁maximize	-11.618
rol	-11.6181
GO	-11.6183
AY	-11.6184
▁Cabinet	-11.6187
stead	-11.6188
▁keywords	-11.6189
▁barriers	-11.6191
LP	-11.6191
HL	-11.6191
▁ki	-11.6192
▁clarity	-11.6192
▁precision	-11.6193
gam	-11.6194
▁cooler	-11.6194
▁Nar	-11.6195
▁Muslims	-11.6195
▁Teen	-11.6196
▁necklace	-11.6199
▁envelope	-11.6201
struct	-11.6204
▁READ	-11.6205
▁hesitate	-11.6205
emi	-11.6205
▁freeze	-11.6206
▁NOW	-11.6207
▁cleaned	-11.6208
▁wipe	-11.6212
working	-11.6212
▁shortage	-11.6213
pool	-11.6214
▁FBI	-11.6215
eta	-11.6216
▁seniors	-11.6216
Am	-11.622
▁wines	-11.6222
▁obligations	-11.6222
▁Plastic	-11.6223
▁Solution	-11.6224
▁Wire	-11.6226
▁coins	-11.623
▁Activity	-11.623
tim	-11.6232
▁cab	-11.6232
▁Chase	-11.6234
▁Dakota	-11.6236
▁dairy	-11.6236
▁Cameron	-11.6236
▁Chip	-11.6236
▁Mil	-11.6239
lem	-11.624
▁Against	-11.6241
▁reliability	-11.6242
▁Deck	-11.6242
▁idiot	-11.6243
▁crafts	-11.6243
heat	-11.6246
▁alt	-11.6246
▁SL	-11.6247
▁Switzerland	-11.6248
▁Phase	-11.6249
▁editorial	-11.6249
▁Interest	-11.6251
bet	-11.6251
▁jumping	-11.6253
▁dryer	-11.6253
▁winds	-11.6254
ssel	-11.6256
▁transformed	-11.6258
etti	-11.6259
▁pretend	-11.626
▁consist	-11.626
▁batter	-11.6265
▁fortunate	-11.6266
▁hiding	-11.6268
etic	-11.6269
▁sal	-11.627
ige	-11.627
▁vessel	-11.6271
▁targeting	-11.6271
▁q	-11.6271
▁relatives	-11.6272
▁gum	-11.6272
▁phenomenon	-11.6273
▁tee	-11.6273
▁Joy	-11.6273
▁floral	-11.6274
▁Zen	-11.6278
▁functioning	-11.6278
▁anxious	-11.6279
▁Sie	-11.628
▁Cle	-11.6285
▁hilarious	-11.6285
▁sculpture	-11.6285
▁wax	-11.6286
▁Programme	-11.6286
ND	-11.6287
pha	-11.629
▁grows	-11.629
▁har	-11.6291
▁boiler	-11.6291
▁Marvel	-11.6291
▁threshold	-11.6292
▁hose	-11.6293
bad	-11.6294
▁Wear	-11.6295
▁runner	-11.6296
ibility	-11.6296
▁Katie	-11.6301
anne	-11.6302
▁Cause	-11.6302
Ga	-11.6304
tract	-11.6307
cular	-11.6308
GF	-11.631
▁Danny	-11.6313
▁baked	-11.6314
▁practically	-11.6315
▁bake	-11.6316
▁aggregate	-11.6317
▁BS	-11.6317
▁profitable	-11.6318
Source	-11.6318
▁nano	-11.6319
▁Hop	-11.6319
phy	-11.6319
▁insist	-11.632
▁Plans	-11.6327
▁frustrating	-11.6329
▁magnificent	-11.6329
▁mud	-11.633
▁assign	-11.6331
▁noon	-11.6332
▁paths	-11.6332
▁RAM	-11.6335
awn	-11.6339
▁ceramic	-11.6342
▁thermal	-11.6343
▁XP	-11.6344
▁Loan	-11.6344
friend	-11.6345
zone	-11.6346
▁coronavirus	-11.6348
▁amateur	-11.6348
gri	-11.6351
▁dude	-11.6354
▁Baseball	-11.6355
▁Kil	-11.6355
▁partially	-11.6358
▁Higher	-11.6358
▁fortune	-11.6359
▁Alpha	-11.6359
▁DS	-11.636
▁disposal	-11.636
▁steak	-11.6361
▁stove	-11.6363
Best	-11.6364
▁monetary	-11.6367
▁bits	-11.6368
▁barrel	-11.6369
▁haha	-11.6372
ann	-11.6372
organ	-11.6374
▁Transport	-11.6379
▁membrane	-11.6379
▁symbols	-11.6385
▁Retrieved	-11.6386
▁recovered	-11.6386
▁Harbor	-11.6388
▁asleep	-11.6388
▁Kay	-11.6389
▁Task	-11.6391
vas	-11.6394
▁Fixed	-11.6396
IX	-11.6396
▁Compare	-11.6399
▁Funny	-11.64
▁premiere	-11.6401
▁Belt	-11.6402
Black	-11.6403
▁awkward	-11.6405
▁CPU	-11.6406
▁Origin	-11.6409
▁sm	-11.641
ATE	-11.6411
▁horizontal	-11.6412
▁briefly	-11.6413
▁graduates	-11.6414
▁counting	-11.6414
Hey	-11.6414
▁Gill	-11.6416
▁Coming	-11.6416
▁Deputy	-11.6417
▁memorial	-11.6417
Fe	-11.6418
▁Items	-11.6419
▁burned	-11.6419
▁vessels	-11.642
▁launching	-11.6424
▁Fabric	-11.6426
▁Ashley	-11.6426
▁Cars	-11.6426
sure	-11.6427
▁texts	-11.6427
hur	-11.6427
▁sustained	-11.6428
▁curl	-11.6428
▁american	-11.6428
▁Recovery	-11.643
▁celebrity	-11.643
▁mins	-11.6431
▁continually	-11.6432
radi	-11.6434
▁NBC	-11.6434
▁adjustable	-11.6434
▁lecture	-11.6435
nge	-11.6436
▁Homes	-11.6439
enberg	-11.6439
▁bot	-11.644
RD	-11.6441
▁Joint	-11.6441
▁controlling	-11.6442
▁align	-11.6442
▁wallpaper	-11.6443
▁consciousness	-11.6444
▁calculate	-11.6445
MF	-11.6446
▁describing	-11.6449
▁Dublin	-11.645
▁Bright	-11.645
aro	-11.645
tier	-11.6451
▁CM	-11.6453
▁dynamics	-11.6453
▁DM	-11.6454
vie	-11.6454
pack	-11.6454
▁Tank	-11.6455
▁Firm	-11.6455
▁equation	-11.6456
▁Shadow	-11.6457
▁nap	-11.6458
▁Cow	-11.6458
▁desperate	-11.6459
▁Sci	-11.6463
▁Gor	-11.6463
▁heated	-11.6465
best	-11.6466
▁char	-11.6466
HC	-11.6467
email	-11.6468
lim	-11.6469
▁ramp	-11.6472
▁polar	-11.6473
▁Tin	-11.6473
▁Fuel	-11.6474
▁Activities	-11.6474
▁welcoming	-11.6474
▁demographic	-11.6474
▁Honda	-11.6476
▁searches	-11.6479
▁Jefferson	-11.6481
▁Stanley	-11.6482
▁Brothers	-11.6482
ounce	-11.6483
▁slice	-11.6483
▁shy	-11.6485
▁Wave	-11.6485
▁newspapers	-11.6485
ulating	-11.6486
ois	-11.6487
▁Birmingham	-11.6487
▁Rosa	-11.6488
root	-11.6489
▁adjustment	-11.6491
▁circles	-11.6493
▁headquarters	-11.6493
▁scandal	-11.6494
▁grabbed	-11.6494
▁loyalty	-11.6494
▁cow	-11.6496
▁machinery	-11.6497
▁observations	-11.6497
▁soda	-11.6498
▁Patients	-11.6499
▁Zi	-11.6502
▁stressed	-11.6504
▁Eli	-11.6505
▁sewing	-11.6505
▁Cheers	-11.6507
▁watches	-11.6508
▁Eagle	-11.6508
▁Fix	-11.651
VI	-11.6514
▁matched	-11.6514
▁mandatory	-11.6519
▁attraction	-11.6521
▁sensitivity	-11.6521
▁notable	-11.6522
▁blanket	-11.6522
has	-11.6528
▁Chain	-11.6528
iling	-11.6529
▁McDonald	-11.6532
▁chi	-11.6535
▁sometime	-11.6537
hor	-11.6537
▁digit	-11.6538
▁recruitment	-11.6539
▁archive	-11.654
▁Alt	-11.6541
▁Neil	-11.6543
IF	-11.6543
config	-11.6543
▁modify	-11.6543
▁fatigue	-11.6544
▁china	-11.6547
▁FC	-11.6548
▁nearest	-11.6549
▁ribbon	-11.6551
▁Amanda	-11.6552
yu	-11.6552
▁safer	-11.6553
ages	-11.6553
▁cycling	-11.6553
▁physicians	-11.6554
▁Eight	-11.6554
issa	-11.6556
▁Arkansas	-11.6557
▁Publishing	-11.6557
▁merchandise	-11.6557
▁Requirements	-11.6561
▁occupation	-11.6563
▁Pure	-11.6564
BM	-11.6567
▁longest	-11.6567
▁Competition	-11.657
▁unfair	-11.6571
▁fare	-11.6576
▁mandate	-11.6577
▁Rest	-11.6578
▁Sheriff	-11.6579
plan	-11.6579
▁Massage	-11.6579
▁Andrea	-11.6582
▁Cop	-11.6582
▁Watson	-11.6583
▁blade	-11.6586
▁ingredient	-11.6586
Top	-11.6586
▁kiss	-11.6587
▁afterwards	-11.659
▁prizes	-11.6593
▁Johnny	-11.6595
▁Margaret	-11.6596
▁embedded	-11.6596
▁Nursing	-11.6596
title	-11.6596
▁lazy	-11.6597
▁Jet	-11.6599
oper	-11.6599
▁Jeremy	-11.6602
▁Traffic	-11.6602
▁scenarios	-11.6603
▁Abu	-11.6606
▁HO	-11.6608
oi	-11.6608
▁AG	-11.6608
▁confusing	-11.6608
▁practicing	-11.6608
▁Associated	-11.6609
umi	-11.6609
▁executives	-11.6609
▁Shoes	-11.661
▁freshman	-11.6611
▁pressing	-11.6613
▁adaptation	-11.6615
lant	-11.6616
▁lands	-11.6617
▁individually	-11.6617
▁::	-11.6618
▁enjoys	-11.6618
▁dysfunction	-11.6619
▁Branch	-11.6619
▁listened	-11.6621
▁outlook	-11.6622
▁Stan	-11.6624
▁Bonus	-11.6624
▁FI	-11.6625
▁ye	-11.6625
Out	-11.6626
▁introducing	-11.6628
▁pillow	-11.6628
▁handles	-11.6628
▁freely	-11.6629
▁Islands	-11.6629
!).	-11.6631
▁Originally	-11.6632
aci	-11.6634
▁statue	-11.6635
▁Scout	-11.6635
▁pastor	-11.6637
▁elementary	-11.6637
▁booked	-11.6639
▁magazines	-11.664
▁Woods	-11.664
▁lesbian	-11.6641
▁duo	-11.6641
iser	-11.6642
▁accurately	-11.6643
▁Cruz	-11.6643
▁Unless	-11.6644
▁promoted	-11.6645
tention	-11.6648
▁Chemical	-11.6648
▁Tap	-11.6649
▁Tele	-11.665
▁Bean	-11.6651
▁consensus	-11.6654
▁traveled	-11.6654
▁Cheese	-11.6654
▁Earlier	-11.6654
charge	-11.6655
logical	-11.6658
▁Regardless	-11.666
▁electronics	-11.666
▁Depending	-11.666
▁font	-11.6661
going	-11.6662
▁Adventure	-11.6662
▁nutrients	-11.6664
▁tactics	-11.6665
first	-11.6665
▁Barcelona	-11.6667
▁inquiry	-11.6667
▁conjunction	-11.6667
▁nerve	-11.6667
▁reel	-11.6668
▁Solid	-11.667
VER	-11.6672
Ho	-11.6672
▁composite	-11.6673
lang	-11.6675
▁boats	-11.6675
www	-11.6675
▁combines	-11.6679
dress	-11.668
rim	-11.6682
rite	-11.6682
▁theories	-11.6682
▁clouds	-11.6682
▁mega	-11.6683
▁Meta	-11.6683
▁Garage	-11.6683
▁castle	-11.6684
▁Neuro	-11.6684
▁insult	-11.6685
▁Rank	-11.6686
▁prop	-11.6686
▁Important	-11.6686
▁Bass	-11.6687
▁nut	-11.6687
▁biology	-11.6688
▁hon	-11.6691
▁Agriculture	-11.6692
▁parade	-11.6694
▁miracle	-11.6699
▁Bin	-11.6701
therapy	-11.6702
▁Throughout	-11.6702
brand	-11.6703
▁terror	-11.6703
▁distribute	-11.6704
▁chains	-11.6705
▁inflammation	-11.6705
▁Problem	-11.6706
▁CB	-11.671
zar	-11.6712
▁Canyon	-11.6713
▁excel	-11.6714
▁spoon	-11.6716
▁taxi	-11.6717
▁Dennis	-11.6719
▁stimulate	-11.6719
gest	-11.6719
▁startup	-11.6719
▁bacon	-11.672
DU	-11.672
▁Owen	-11.672
▁Cultural	-11.672
▁promotional	-11.6721
▁partly	-11.6721
▁Ghost	-11.6722
▁boil	-11.6722
▁Beijing	-11.6725
cio	-11.6725
▁Leg	-11.6726
▁existed	-11.6727
inger	-11.6727
▁robot	-11.6728
rag	-11.6729
▁manually	-11.6731
▁Kirk	-11.6731
▁</	-11.6731
html	-11.6732
nk	-11.6732
▁catching	-11.6733
hang	-11.6734
▁GT	-11.6734
inder	-11.6736
▁immigrants	-11.6737
Jo	-11.6738
para	-11.6738
news	-11.6738
▁enthusiasm	-11.6738
▁sir	-11.6739
▁structured	-11.674
▁terrorist	-11.6743
▁bookmark	-11.6743
ering	-11.6744
▁Vitamin	-11.6745
▁lining	-11.6748
pier	-11.6748
dig	-11.6749
scape	-11.6749
▁bur	-11.6751
▁FM	-11.6751
aba	-11.6751
▁Admission	-11.6752
▁conducting	-11.6752
eman	-11.6755
▁comparing	-11.6755
▁proceeds	-11.6755
▁Arena	-11.6756
▁ritual	-11.6758
▁sleeve	-11.6758
vit	-11.6762
▁Testing	-11.6764
ses	-11.6765
px	-11.6765
▁heroes	-11.6767
▁promo	-11.677
▁complications	-11.6771
adi	-11.6772
cross	-11.6775
▁statistical	-11.6775
▁mesh	-11.6775
▁helmet	-11.6779
▁considerably	-11.6781
▁Condition	-11.6782
▁fever	-11.6788
▁outlets	-11.6788
▁Wheel	-11.679
▁Initiative	-11.679
▁integral	-11.679
▁luxurious	-11.679
▁BMW	-11.679
▁balloon	-11.6792
boat	-11.6793
▁dragon	-11.6793
▁discharge	-11.6794
break	-11.6794
▁intra	-11.6794
change	-11.6799
▁subsequently	-11.6799
▁Mental	-11.68
▁cope	-11.6801
▁reset	-11.6801
eon	-11.6802
xx	-11.6802
mental	-11.6802
▁Nine	-11.6803
▁Mirror	-11.6803
ographic	-11.6803
▁Architecture	-11.6804
▁Raj	-11.6805
▁Gardens	-11.6806
▁Sandy	-11.6807
▁investigating	-11.681
▁Richmond	-11.681
git	-11.681
▁herbs	-11.6811
▁RV	-11.6812
soft	-11.6813
ido	-11.6814
▁delayed	-11.6814
▁Pattern	-11.6817
family	-11.6818
▁evolved	-11.6818
▁terrace	-11.6819
▁restored	-11.682
▁timeline	-11.682
NE	-11.6821
▁Todd	-11.6823
▁fragment	-11.683
▁Poland	-11.683
your	-11.683
▁Individual	-11.683
▁VPN	-11.6833
▁spice	-11.6834
TL	-11.6834
▁clause	-11.6836
pir	-11.6839
▁bro	-11.684
▁snacks	-11.6841
▁gauge	-11.6843
▁orchestra	-11.6844
Har	-11.6845
▁Norman	-11.6847
▁Hillary	-11.6847
▁advisor	-11.685
▁SU	-11.685
▁Dur	-11.6851
WD	-11.6851
mut	-11.6853
▁independently	-11.6854
▁Corps	-11.6855
▁RC	-11.6855
▁Emb	-11.6857
▁traded	-11.6857
▁Error	-11.6858
▁particles	-11.6859
grad	-11.6859
▁Reform	-11.6861
▁prep	-11.6862
▁Uni	-11.6863
▁sandwich	-11.6865
▁bust	-11.6865
▁Julia	-11.6866
▁raid	-11.6867
still	-11.6869
▁Lemon	-11.6869
▁organizing	-11.687
▁Christianity	-11.6872
▁Dev	-11.6874
▁freak	-11.6875
cit	-11.6876
▁tailored	-11.6876
▁Pump	-11.6876
lets	-11.6878
▁replica	-11.6879
▁islands	-11.688
▁democratic	-11.6882
▁Visa	-11.6882
▁Ruth	-11.6883
▁Document	-11.6883
▁Moving	-11.6883
rl	-11.6885
▁Juan	-11.6885
rang	-11.6887
▁vibe	-11.6888
▁novels	-11.6888
▁Mega	-11.6889
▁automotive	-11.6889
▁bikes	-11.689
image	-11.6892
▁desires	-11.6894
▁spotted	-11.6895
▁Probably	-11.6896
▁crawl	-11.6896
▁snake	-11.6897
BU	-11.6898
▁Similarly	-11.6898
rab	-11.6898
▁counties	-11.69
bie	-11.6901
▁peanut	-11.6902
▁Heavy	-11.6902
▁realm	-11.6906
▁conform	-11.6908
▁Leo	-11.6908
LR	-11.6909
▁ph	-11.6909
▁adjacent	-11.6909
▁ESPN	-11.691
▁struggles	-11.691
▁institute	-11.6911
▁LI	-11.6913
▁evaluated	-11.6915
▁Whole	-11.6916
▁Partnership	-11.6916
▁banned	-11.6916
▁Montana	-11.6917
▁woods	-11.6918
World	-11.6919
corn	-11.6919
wheel	-11.6919
▁rentals	-11.6919
▁allegations	-11.692
▁void	-11.6921
▁Contents	-11.6921
▁opera	-11.6922
▁Pizza	-11.6922
▁Racing	-11.6923
▁Effective	-11.6925
Link	-11.6925
▁sur	-11.6925
▁laughed	-11.6925
▁Nicole	-11.6926
sell	-11.6929
▁Creating	-11.693
▁gluten	-11.693
icle	-11.6934
▁arc	-11.6935
▁wardrobe	-11.6936
▁basics	-11.6936
look	-11.6937
▁dies	-11.6939
RL	-11.694
vac	-11.6942
▁Interesting	-11.6942
▁Cent	-11.6944
▁NI	-11.6946
▁Ran	-11.6947
▁homeless	-11.6947
▁Kindle	-11.6947
▁chill	-11.6948
▁yarn	-11.6949
▁Employment	-11.695
lves	-11.6951
▁Nathan	-11.6952
agon	-11.6952
rad	-11.6954
▁dash	-11.6955
▁Wy	-11.6955
▁Podcast	-11.6956
▁sheer	-11.6957
▁McG	-11.6958
▁bail	-11.6959
▁probe	-11.6961
▁coloring	-11.6964
NG	-11.6966
DF	-11.6966
▁Nike	-11.697
▁Movies	-11.697
▁cleared	-11.6974
▁vinegar	-11.6976
HO	-11.6977
▁secrets	-11.698
tive	-11.698
▁Hur	-11.6982
▁spine	-11.6982
▁Accessories	-11.6982
▁sensors	-11.6983
▁Rat	-11.6983
▁Consultant	-11.6989
▁Cas	-11.699
BB	-11.699
▁UV	-11.6992
▁soldier	-11.6992
▁analysts	-11.6994
▁creator	-11.6995
kov	-11.6995
▁Memory	-11.6997
wed	-11.6999
▁Tro	-11.6999
▁Met	-11.7
▁Session	-11.7001
FO	-11.7002
▁english	-11.7002
storm	-11.7004
dict	-11.7004
itt	-11.7006
tical	-11.7006
▁recruit	-11.7009
▁NT	-11.7009
▁Mai	-11.7009
▁eternal	-11.7009
▁reporters	-11.701
▁Plate	-11.7011
▁lacking	-11.7011
▁touching	-11.7014
▁ser	-11.7016
ony	-11.7016
ode	-11.7017
▁offset	-11.7018
▁Opt	-11.702
▁Chart	-11.702
▁hills	-11.702
▁renowned	-11.7021
▁bible	-11.7022
▁apologize	-11.7022
▁Finish	-11.7026
▁premises	-11.7026
▁arena	-11.7027
▁CF	-11.7028
lk	-11.7028
▁anonymous	-11.7032
▁Term	-11.7032
▁Methods	-11.7033
note	-11.7034
▁beaten	-11.7035
▁knowledgeable	-11.7035
▁notification	-11.7037
▁Sol	-11.7038
ici	-11.704
▁Flowers	-11.7041
▁cottage	-11.7043
▁fatal	-11.7044
▁Explorer	-11.7048
▁internationally	-11.7049
▁Conversation	-11.7049
CG	-11.705
▁ONE	-11.705
▁CV	-11.7051
▁qui	-11.7051
▁globally	-11.7052
▁Theory	-11.7052
▁retire	-11.7053
▁classification	-11.7054
▁MR	-11.7054
UK	-11.7054
▁dam	-11.7055
▁acknowledged	-11.7055
▁approaching	-11.7056
▁genius	-11.7056
▁Entry	-11.7058
also	-11.7058
fan	-11.7059
▁Standards	-11.7059
▁Provide	-11.706
tile	-11.706
add	-11.706
▁Customers	-11.7061
▁Protect	-11.7061
▁kits	-11.7061
▁complimentary	-11.7063
▁Fer	-11.7065
utter	-11.7066
▁economics	-11.7069
▁Commons	-11.7069
▁Parent	-11.7069
▁Structure	-11.707
▁plumbing	-11.707
▁GI	-11.7072
▁admire	-11.7073
Gr	-11.7074
▁Fellow	-11.7076
▁adapted	-11.7077
especially	-11.7077
▁Wed	-11.7077
▁incidents	-11.7077
▁meantime	-11.7081
▁CAN	-11.7084
▁Carr	-11.7084
▁spy	-11.7086
commerce	-11.7088
▁ethics	-11.7089
▁transparency	-11.709
▁coordinator	-11.709
▁sensation	-11.7091
▁assessed	-11.7091
▁commentary	-11.7092
▁cheapest	-11.7095
▁forcing	-11.7095
▁Chuck	-11.7096
▁Period	-11.7097
▁analyzed	-11.7097
rov	-11.7098
▁NHL	-11.7099
▁stairs	-11.7099
▁knees	-11.7101
▁KB	-11.7103
▁correlation	-11.7103
▁Shan	-11.7104
▁Spo	-11.7104
▁chase	-11.7106
▁Corner	-11.711
▁Benjamin	-11.711
▁intensive	-11.7112
MT	-11.7113
▁gospel	-11.7117
▁varying	-11.7117
▁Flower	-11.712
cru	-11.712
▁assuming	-11.7122
▁volumes	-11.7123
▁leisure	-11.7124
▁pursuing	-11.7124
▁sore	-11.7127
▁verified	-11.7127
...)	-11.7128
▁knit	-11.7129
pli	-11.7129
aged	-11.713
nut	-11.7131
▁Effects	-11.7132
▁escort	-11.7132
cco	-11.7134
▁Hold	-11.7134
▁Lie	-11.7135
▁Flu	-11.7135
▁mp	-11.7137
▁Jerusalem	-11.7144
▁Swedish	-11.7144
▁pharmaceutical	-11.7144
▁Issues	-11.7144
▁Alternative	-11.7147
cial	-11.715
▁fried	-11.7151
▁cherry	-11.7151
▁distant	-11.7151
▁Sum	-11.7153
mmy	-11.7155
▁packing	-11.7155
▁cousin	-11.7155
▁explosion	-11.7157
▁indicating	-11.7158
▁synthetic	-11.7158
▁racist	-11.7158
Da	-11.7159
▁sporting	-11.7159
▁Clo	-11.716
Bu	-11.7161
rg	-11.7162
▁brass	-11.7163
▁draws	-11.7163
▁encountered	-11.7164
ars	-11.7165
gging	-11.7167
▁seminar	-11.7169
oriented	-11.717
Thank	-11.7172
▁Prevention	-11.7172
▁sec	-11.7172
▁assisted	-11.7173
fro	-11.7179
pra	-11.7179
▁mailing	-11.7182
▁Friend	-11.7182
▁Columbus	-11.7185
▁visibility	-11.7185
▁absent	-11.7185
▁Az	-11.7185
member	-11.7185
though	-11.7188
hat	-11.7189
▁Maintenance	-11.7192
▁Seller	-11.7192
▁Roberts	-11.7195
lessly	-11.7196
ark	-11.7196
writer	-11.7197
▁clips	-11.7197
▁Tue	-11.7197
▁suspected	-11.72
▁programmes	-11.72
iah	-11.7202
▁Turner	-11.7203
DD	-11.7204
▁horn	-11.7204
▁Draft	-11.7205
▁litigation	-11.7205
▁trainer	-11.7206
▁suck	-11.7207
▁mate	-11.7207
▁Kris	-11.7207
▁Owner	-11.7208
▁header	-11.7208
cis	-11.7209
▁hypo	-11.7209
kins	-11.721
▁Surgery	-11.7212
▁node	-11.7214
▁theft	-11.7215
lc	-11.7216
▁corners	-11.7219
▁tasting	-11.7219
▁Guidelines	-11.7219
▁adhere	-11.722
ail	-11.7221
▁brew	-11.7221
erge	-11.7221
ré	-11.7222
▁forming	-11.7224
▁Brother	-11.7224
▁Pete	-11.7225
▁molecular	-11.7225
▁hey	-11.7226
pal	-11.7227
▁Concept	-11.7227
▁Democrat	-11.7228
▁coupled	-11.7229
frame	-11.723
liter	-11.723
▁apples	-11.723
▁woke	-11.723
▁remarks	-11.7233
▁statute	-11.7233
▁organizational	-11.7233
tant	-11.7236
UTC	-11.7237
▁Rot	-11.7239
taking	-11.7239
empt	-11.724
▁Charter	-11.7242
▁reserves	-11.7243
iver	-11.7243
▁sack	-11.7243
▁Outside	-11.7244
▁Mul	-11.7246
▁Announce	-11.7247
▁Outlook	-11.7247
▁Haven	-11.7247
▁talents	-11.7247
▁rocket	-11.7249
.......	-11.725
▁bloggers	-11.725
▁accordingly	-11.7252
count	-11.7253
▁Brook	-11.7253
▁probability	-11.7253
▁Thor	-11.7254
▁crypto	-11.7254
▁delightful	-11.7254
anta	-11.7255
▁switching	-11.7256
gno	-11.7257
▁RM	-11.7257
▁occupied	-11.7257
▁("	-11.7258
dir	-11.7259
shed	-11.726
▁Testament	-11.726
▁vest	-11.7261
▁distinguish	-11.7261
▁lenses	-11.7262
▁towel	-11.7263
▁commenting	-11.7265
▁TB	-11.7265
▁Nut	-11.7268
▁Ry	-11.7269
▁frustrated	-11.7269
▁Milk	-11.7269
▁TD	-11.7269
▁owe	-11.7272
pop	-11.7273
▁predictions	-11.7273
▁Moscow	-11.7274
▁tobacco	-11.7274
▁Drink	-11.7274
▁Stick	-11.7277
▁Dollar	-11.7277
▁glue	-11.7278
because	-11.7279
plo	-11.728
Che	-11.7282
▁Ultimate	-11.7282
▁justify	-11.7283
▁summit	-11.7283
Name	-11.7286
▁Beth	-11.7287
▁melt	-11.7288
▁mor	-11.7288
gna	-11.7288
▁viral	-11.7289
▁Sad	-11.7289
▁Kenya	-11.7289
▁gloves	-11.7291
oph	-11.7293
First	-11.7293
fort	-11.7293
▁specially	-11.7294
▁electro	-11.7294
▁nails	-11.7296
aid	-11.7298
▁deleted	-11.7299
▁Masters	-11.73
▁therapist	-11.7303
▁Olympics	-11.7304
▁Installation	-11.7305
▁Parts	-11.7306
▁inexpensive	-11.7307
▁raises	-11.7309
▁pairs	-11.7309
▁Nashville	-11.7315
▁ruin	-11.7316
▁Madrid	-11.7316
▁prescribed	-11.7316
▁restrict	-11.7317
▁dan	-11.7318
▁adjustments	-11.7321
▁inclusive	-11.7321
▁horizon	-11.7321
▁HS	-11.7322
▁heels	-11.7323
▁knot	-11.7326
▁Rail	-11.7328
mag	-11.7329
▁microwave	-11.7329
▁Turkish	-11.7329
▁bitcoin	-11.733
▁Disc	-11.7333
▁sentences	-11.7335
▁calculator	-11.7336
▁Fruit	-11.7336
▁GR	-11.7337
▁drone	-11.7338
▁cal	-11.734
sea	-11.7341
▁Advisor	-11.7341
▁Bas	-11.7342
▁finishes	-11.7342
▁Shell	-11.7343
▁scroll	-11.7344
▁bon	-11.7344
▁polish	-11.7348
▁exp	-11.735
▁Mumbai	-11.735
▁render	-11.7351
▁Stamp	-11.7351
hil	-11.7352
Today	-11.7353
▁crops	-11.7353
▁regulate	-11.7354
▁lightly	-11.7354
big	-11.7356
▁imposed	-11.7356
▁remedy	-11.7357
·	-11.7357
dri	-11.7358
▁spreading	-11.7359
▁assignments	-11.7359
▁Jump	-11.736
had	-11.7362
▁Directory	-11.7363
▁cocktail	-11.7363
▁midnight	-11.7365
own	-11.7365
lining	-11.7366
▁Monster	-11.7366
Love	-11.7366
▁barn	-11.7367
▁sync	-11.7368
▁conferences	-11.7369
▁Legend	-11.7371
▁Coordinator	-11.7371
▁Conditions	-11.7371
▁tendency	-11.7371
▁logged	-11.7372
▁Apart	-11.7372
▁cozy	-11.7374
▁realise	-11.7374
▁reservation	-11.7377
▁Fur	-11.7378
▁syrup	-11.7378
course	-11.7378
▁crust	-11.7378
▁cellular	-11.7378
▁plea	-11.7379
▁poorly	-11.7381
▁indicators	-11.7382
station	-11.7382
▁chapters	-11.7383
▁hassle	-11.7384
▁helicopter	-11.7384
▁appetite	-11.7384
▁portrait	-11.7384
▁Lodge	-11.7385
owner	-11.7386
around	-11.7387
▁Limit	-11.7387
pri	-11.739
DM	-11.7391
▁wages	-11.7391
works	-11.7391
▁Exercise	-11.7391
▁backing	-11.7392
▁march	-11.7394
▁clay	-11.7394
▁kg	-11.7394
▁sticks	-11.7394
▁Writer	-11.7395
▁equality	-11.7396
Per	-11.7396
▁Weekend	-11.7397
▁legislative	-11.7398
▁Bang	-11.7399
▁waters	-11.7399
▁Barack	-11.74
▁solved	-11.7401
▁phrases	-11.7401
▁Examples	-11.7403
▁Ferr	-11.7405
▁Reader	-11.7406
▁Revenue	-11.7407
▁travelers	-11.7407
About	-11.7407
▁tricky	-11.741
lux	-11.7412
▁rewarding	-11.7412
▁RI	-11.7412
▁witnessed	-11.7413
▁responding	-11.7414
▁editors	-11.7416
▁yo	-11.7416
▁breakdown	-11.7416
onic	-11.7418
▁necessity	-11.7419
RG	-11.7419
▁Str	-11.742
▁MT	-11.742
xxx	-11.742
▁benchmark	-11.7421
▁Walking	-11.7421
five	-11.7424
rou	-11.7428
State	-11.7429
▁Certification	-11.7433
▁thoughtful	-11.7437
Th	-11.7438
ress	-11.744
▁Advisory	-11.7442
▁sunset	-11.7442
▁amendment	-11.7442
▁Lunch	-11.7443
hir	-11.7445
▁bears	-11.7445
▁WR	-11.7445
IG	-11.7446
▁tragedy	-11.7447
▁riders	-11.7448
▁marble	-11.7448
▁firmly	-11.7449
NP	-11.745
Of	-11.745
▁grandchildren	-11.7452
▁abundance	-11.7454
▁circulation	-11.7454
▁Heather	-11.7454
▁Seed	-11.7454
▁Bluetooth	-11.7454
▁Spot	-11.7457
▁Hannah	-11.7459
▁males	-11.7459
▁weakness	-11.7461
race	-11.7461
▁continent	-11.7461
Pa	-11.7462
OW	-11.7464
▁Dale	-11.7464
▁Beer	-11.7466
iding	-11.7467
▁connectivity	-11.7469
▁fu	-11.7469
▁infant	-11.7472
▁destinations	-11.7475
bil	-11.7481
▁debris	-11.7482
SF	-11.7483
▁Directors	-11.7483
▁Raw	-11.7484
▁Hyper	-11.7484
make	-11.7484
▁Egyptian	-11.7486
▁Canon	-11.7486
▁Eagles	-11.7487
▁brutal	-11.7488
half	-11.7489
▁autumn	-11.7489
▁Wang	-11.749
▁Automatic	-11.749
lish	-11.7491
▁chic	-11.7491
▁almond	-11.7491
TOR	-11.7491
century	-11.7493
▁rust	-11.7495
▁conclude	-11.7496
▁Sox	-11.7496
▁Album	-11.7496
▁chaos	-11.7498
▁withdraw	-11.7498
num	-11.7499
▁Nurse	-11.7503
▁rides	-11.7503
▁drift	-11.7503
ij	-11.7505
▁segments	-11.7506
▁funnel	-11.7507
▁lifting	-11.7507
UD	-11.7507
▁activation	-11.7507
▁amid	-11.7507
▁Cyber	-11.7508
▁LinkedIn	-11.751
▁behaviors	-11.7512
▁Copy	-11.7514
second	-11.7514
▁Veterans	-11.7514
▁flavour	-11.7515
▁rug	-11.7517
▁Seriously	-11.752
imp	-11.7521
▁Gran	-11.7522
▁playoff	-11.7524
Cr	-11.7526
▁holders	-11.7527
▁rankings	-11.7529
▁mentally	-11.7529
▁Extension	-11.7532
▁headline	-11.7532
▁rip	-11.7534
▁Ang	-11.7534
▁pond	-11.7534
▁Bryan	-11.7536
▁Ay	-11.7537
▁Answers	-11.7537
▁saves	-11.7538
June	-11.7538
four	-11.7539
▁splash	-11.7539
▁scholars	-11.7539
▁eaten	-11.754
▁Politics	-11.754
▁Root	-11.754
▁belly	-11.7543
▁Zero	-11.7543
pay	-11.7543
▁Rental	-11.7543
▁Hour	-11.7543
▁Stein	-11.7544
▁salmon	-11.7546
▁partnerships	-11.7547
▁touches	-11.7547
▁Gender	-11.7547
nit	-11.7548
▁Milan	-11.7551
Se	-11.7553
▁architectural	-11.7553
▁avoiding	-11.7553
▁Barn	-11.7554
ote	-11.7556
▁compassion	-11.756
▁traders	-11.7561
▁Hook	-11.7563
▁tastes	-11.7566
▁trademark	-11.7566
▁profound	-11.7567
▁elect	-11.7569
▁Laser	-11.7573
▁fundraising	-11.7574
▁Gr	-11.7574
igo	-11.7575
▁counseling	-11.7575
▁Remote	-11.7575
▁Liz	-11.758
▁passive	-11.7581
▁nightmare	-11.7581
▁turnover	-11.7582
▁translated	-11.7583
▁Spark	-11.7584
ete	-11.7586
ime	-11.7587
▁reads	-11.7588
▁verbal	-11.7588
▁replies	-11.7588
vari	-11.759
▁Grill	-11.7593
clock	-11.7593
▁adore	-11.7594
▁releasing	-11.7595
▁(#	-11.7596
▁Membership	-11.7597
▁households	-11.7597
▁reign	-11.7597
▁influences	-11.7598
▁advances	-11.7598
rif	-11.7599
▁decorated	-11.7601
▁Border	-11.7603
▁newer	-11.7603
▁behave	-11.7604
graphic	-11.7605
▁Thread	-11.7606
▁arrives	-11.7606
TON	-11.7607
MAN	-11.7607
▁modeling	-11.7609
▁Manufacturing	-11.761
▁manuscript	-11.761
▁nevertheless	-11.761
kill	-11.7611
dor	-11.7612
▁trains	-11.7614
▁smiled	-11.7615
▁deadly	-11.7616
million	-11.7617
▁lengthy	-11.7617
▁Brazilian	-11.762
▁Factory	-11.762
▁Movement	-11.762
▁Teachers	-11.7621
park	-11.7624
▁Ranch	-11.7624
▁tier	-11.7624
▁BBQ	-11.7625
train	-11.7629
impl	-11.7631
▁Smoke	-11.7632
▁Northwest	-11.7632
Thanks	-11.7633
▁unfold	-11.7634
▁glimpse	-11.7638
▁borders	-11.7639
▁Chen	-11.7641
▁strictly	-11.7645
Welcome	-11.7645
▁gesture	-11.7645
▁Ul	-11.7645
▁speeds	-11.7646
Mr	-11.7647
▁missile	-11.7648
▁Generally	-11.7649
▁Tiger	-11.765
▁appearing	-11.7651
▁Poor	-11.7652
alo	-11.7652
▁Relationship	-11.7652
▁Rogers	-11.7654
ges	-11.7654
▁consisting	-11.7654
ides	-11.7657
▁Broad	-11.7658
▁Que	-11.7658
▁Treat	-11.7659
cil	-11.7659
▁Schu	-11.7662
▁teenager	-11.7663
etta	-11.7663
▁Duration	-11.7664
mini	-11.7665
▁flows	-11.7665
▁Oliver	-11.7666
iving	-11.7666
▁mortality	-11.7667
▁Liberal	-11.767
▁surge	-11.7671
HI	-11.7672
▁DI	-11.7672
▁Stainless	-11.7674
▁Rhode	-11.7675
Product	-11.7676
▁emphasize	-11.7678
▁Connection	-11.768
▁jersey	-11.768
▁Montreal	-11.7681
▁planner	-11.7681
ART	-11.7685
▁needle	-11.7685
▁investigated	-11.7685
▁achievements	-11.7686
▁manifest	-11.7686
▁guilt	-11.7687
▁Sk	-11.7689
Share	-11.7689
▁tablespoons	-11.7694
▁Sel	-11.7694
▁Champions	-11.7695
nom	-11.7695
▁homeowners	-11.7696
rap	-11.7698
wn	-11.7699
isco	-11.7699
▁Colour	-11.77
▁appearances	-11.7701
▁commands	-11.7702
▁Associates	-11.7702
▁arriving	-11.7703
▁porch	-11.7704
▁Oz	-11.7706
▁echo	-11.7708
▁Hudson	-11.771
▁perfection	-11.771
▁drawings	-11.771
▁Oracle	-11.7711
▁---	-11.7714
▁consequence	-11.7717
▁consuming	-11.7718
hra	-11.7718
▁recession	-11.772
▁dealers	-11.772
▁Zoo	-11.7722
▁Warner	-11.7723
▁australia	-11.7724
▁fifty	-11.7724
▁tuition	-11.7724
▁Via	-11.7724
▁PT	-11.7727
▁elaborate	-11.7731
cam	-11.7733
▁Patent	-11.7735
▁AN	-11.7736
▁runners	-11.7738
▁Advertising	-11.7738
▁acoustic	-11.7738
▁Prepare	-11.774
▁viable	-11.7741
▁ego	-11.7743
▁Dual	-11.7745
▁playoffs	-11.7745
▁musician	-11.7745
▁ambition	-11.7746
▁Nazi	-11.7746
ario	-11.7747
CN	-11.7749
▁rifle	-11.7753
▁characterized	-11.7754
▁Rates	-11.7754
▁mindset	-11.7756
posing	-11.7757
▁washed	-11.7758
Cal	-11.7759
▁instinct	-11.776
▁pressed	-11.7762
▁blocking	-11.7765
▁pays	-11.7765
EF	-11.7767
▁Taiwan	-11.7767
▁Nintendo	-11.7767
▁cricket	-11.7767
▁administrator	-11.7768
Like	-11.7772
▁Principal	-11.7773
▁Hindu	-11.7774
▁altogether	-11.7775
▁internship	-11.7775
▁planted	-11.7776
▁encourages	-11.7776
tty	-11.7777
▁Flo	-11.7779
▁Harrison	-11.7781
▁happily	-11.7782
▁transcript	-11.7784
buy	-11.7785
▁worries	-11.7789
▁modes	-11.7789
▁Brief	-11.7789
▁lifted	-11.7789
risk	-11.779
PDF	-11.7794
▁progression	-11.7794
▁Rush	-11.7795
▁Kh	-11.7801
rey	-11.7801
▁steering	-11.7803
▁Warm	-11.7803
▁Hampshire	-11.7804
▁Dam	-11.7804
▁Bobby	-11.7808
▁belongs	-11.7808
▁pending	-11.781
▁Scripture	-11.7811
▁Concert	-11.7811
▁lend	-11.7812
aly	-11.7813
God	-11.7815
▁Blake	-11.7817
▁Bow	-11.7821
▁strengths	-11.7823
▁Sold	-11.7824
black	-11.7825
▁sophomore	-11.7825
▁Airlines	-11.7826
fill	-11.7827
cycle	-11.7828
bon	-11.7829
▁crafted	-11.7829
NB	-11.7829
▁Yard	-11.783
▁expose	-11.7831
SV	-11.7832
▁Carbon	-11.7833
▁Battery	-11.7833
NN	-11.7834
horn	-11.7834
rene	-11.7836
▁casting	-11.7837
▁enforce	-11.7837
▁unions	-11.7838
▁earthquake	-11.784
▁amazed	-11.784
▁incorrect	-11.7841
▁zones	-11.7844
▁tanks	-11.7845
▁weekends	-11.7845
▁Mt	-11.7845
▁quietly	-11.7845
call	-11.7846
dependent	-11.7847
▁bless	-11.7847
omb	-11.7848
▁Downtown	-11.7849
▁grams	-11.785
▁substantially	-11.7852
▁Grow	-11.7852
▁Analyst	-11.7854
▁beast	-11.7855
▁supervision	-11.7855
▁Manufacturer	-11.7857
▁sells	-11.7861
▁socks	-11.7861
▁median	-11.7861
▁Crew	-11.7862
▁preliminary	-11.7862
▁wo	-11.7862
yahoo	-11.7863
▁athlete	-11.7863
▁alignment	-11.7864
▁critic	-11.7866
oop	-11.7867
▁Palestinian	-11.7867
▁cushion	-11.7868
too	-11.7868
fil	-11.7869
hot	-11.7869
USA	-11.7869
▁landlord	-11.7869
▁Lovely	-11.787
▁Heights	-11.7872
▁passport	-11.7873
▁Victor	-11.7879
▁convicted	-11.7881
▁Reed	-11.7882
▁por	-11.7883
................	-11.7886
▁appointments	-11.7888
▁revised	-11.789
▁nasty	-11.7891
▁tragic	-11.7891
▁Theme	-11.7897
▁Dell	-11.7901
▁router	-11.7902
▁Hydro	-11.7904
▁lending	-11.7905
▁Facilities	-11.7906
▁Contemporary	-11.7906
▁Foster	-11.7907
▁Karl	-11.7912
▁attendees	-11.7914
▁halt	-11.7915
▁Boo	-11.7917
▁implant	-11.7917
phe	-11.792
▁Hurricane	-11.792
▁combining	-11.792
normal	-11.7921
▁simpler	-11.7921
▁Virgin	-11.7923
▁Gate	-11.7925
▁Traditional	-11.7926
dh	-11.7926
mine	-11.7927
EAR	-11.7927
▁supermarket	-11.7929
▁Sites	-11.7932
▁manages	-11.7934
ACE	-11.7936
▁retro	-11.7938
▁Birth	-11.7938
▁Wu	-11.7939
LAN	-11.794
▁inevitable	-11.7942
▁Gospel	-11.7942
▁sequel	-11.7943
▁marking	-11.7945
verb	-11.7945
▁Ker	-11.7947
▁thru	-11.7948
▁alliance	-11.795
wy	-11.795
Show	-11.7951
▁insane	-11.7952
fat	-11.7953
▁Blues	-11.7954
▁verb	-11.7955
▁Rooms	-11.7955
NK	-11.7956
▁flush	-11.7956
pie	-11.7957
pping	-11.7957
▁pla	-11.796
▁parish	-11.796
tron	-11.7961
iri	-11.7963
▁Expect	-11.7964
▁scientist	-11.7964
imo	-11.7964
▁pipes	-11.7967
giving	-11.7967
Note	-11.7967
interest	-11.7968
lop	-11.7968
rator	-11.7968
▁satisfying	-11.797
▁Barr	-11.7971
shaped	-11.7972
▁characteristic	-11.7972
uous	-11.7972
people	-11.7972
▁pioneer	-11.7974
▁downloads	-11.7975
▁mint	-11.7978
▁nonetheless	-11.7979
▁penalties	-11.7979
turn	-11.7979
graphy	-11.7981
▁defending	-11.7982
▁candle	-11.7982
▁decides	-11.7983
▁TE	-11.7983
although	-11.7986
▁Conservative	-11.7987
video	-11.7987
Search	-11.7987
erate	-11.7988
robe	-11.7989
▁Marco	-11.799
▁clearance	-11.799
▁wealthy	-11.799
▁PP	-11.799
▁genuinely	-11.7991
structure	-11.7993
▁Edit	-11.7994
▁Basically	-11.7996
▁bonuses	-11.7996
▁needing	-11.7997
vil	-11.7997
otic	-11.7998
▁cargo	-11.7998
oil	-11.8001
▁Cemetery	-11.8001
▁Strategic	-11.8001
▁Domain	-11.8004
▁buses	-11.8004
▁financially	-11.8005
▁Facts	-11.8006
▁Kir	-11.8008
▁dominated	-11.8008
▁reviewing	-11.8009
feld	-11.8009
▁avoided	-11.801
▁occurring	-11.801
▁RBI	-11.801
▁picnic	-11.8011
▁Kal	-11.8011
fly	-11.8012
▁Dawn	-11.8013
▁buffer	-11.8014
▁coastal	-11.8014
generation	-11.8015
mill	-11.8016
▁Analytics	-11.8016
▁Mercedes	-11.8016
▁Lights	-11.8017
sten	-11.8017
▁Deb	-11.8017
▁goat	-11.802
▁Fourth	-11.8021
BL	-11.8022
▁acted	-11.8024
erry	-11.8025
▁carriers	-11.8025
lli	-11.8026
▁dye	-11.8029
pea	-11.803
▁Blvd	-11.8031
▁circular	-11.8031
▁doctrine	-11.8031
FE	-11.8032
cultural	-11.8032
▁slower	-11.8035
chin	-11.8036
▁bounce	-11.8038
▁inviting	-11.8039
culture	-11.804
▁swear	-11.8042
▁translate	-11.8043
FM	-11.8044
▁discusses	-11.8044
▁ham	-11.8045
▁surround	-11.8046
▁EST	-11.8048
__	-11.8048
▁analyses	-11.8051
▁compounds	-11.8052
▁relaxation	-11.8057
▁sliced	-11.8058
rist	-11.8059
▁cage	-11.806
▁Cincinnati	-11.8061
▁Shakespeare	-11.8061
▁Bottom	-11.8061
▁isolation	-11.8061
AW	-11.8061
▁ginger	-11.8063
▁Income	-11.8064
▁interviewed	-11.8067
▁cinnamon	-11.8068
▁endeavor	-11.8068
chel	-11.8069
▁magnet	-11.8069
▁Holland	-11.807
support	-11.8071
▁Dal	-11.8075
▁documented	-11.8076
▁elevated	-11.8076
▁Plaza	-11.8076
▁schemes	-11.8077
▁ranch	-11.8077
▁landmark	-11.8078
▁poems	-11.8079
▁Serving	-11.8083
▁Fantasy	-11.8083
▁pine	-11.8084
▁bathrooms	-11.8085
▁Oakland	-11.8086
▁Rear	-11.8086
▁chop	-11.8087
▁sweater	-11.8087
▁Zip	-11.8088
▁Supplement	-11.809
▁emotionally	-11.809
gic	-11.809
▁prestigious	-11.8091
▁Pull	-11.8091
▁Database	-11.8091
natural	-11.8091
pound	-11.8092
torial	-11.8092
▁Sponsor	-11.8093
▁Alert	-11.8093
ws	-11.8094
▁uncle	-11.8095
▁Sr	-11.8097
▁Television	-11.8098
shore	-11.81
▁Isn	-11.81
▁Fame	-11.8101
▁doi	-11.8102
▁RS	-11.8104
▁Generation	-11.8106
▁Window	-11.8107
▁organised	-11.8108
▁expects	-11.8109
bc	-11.8112
▁Rebecca	-11.8113
▁controversy	-11.8113
▁puppy	-11.8113
▁UI	-11.8114
▁Dogs	-11.8114
bone	-11.8117
▁DH	-11.8118
▁adviser	-11.8119
hun	-11.8119
▁capsule	-11.8119
▁Quarter	-11.8119
▁fame	-11.812
INE	-11.8121
▁EPA	-11.8122
▁Pepper	-11.8122
story	-11.8124
▁delays	-11.8127
string	-11.8127
▁inappropriate	-11.8129
▁boasts	-11.813
▁unclear	-11.8131
▁acids	-11.8134
▁spite	-11.8134
▁subscribers	-11.8135
North	-11.8136
▁Labels	-11.8136
▁Monte	-11.8138
hop	-11.8138
stand	-11.8138
▁shallow	-11.8139
▁Jar	-11.814
▁dosage	-11.814
▁Function	-11.8142
▁Nebraska	-11.8143
▁payday	-11.8143
▁smoothly	-11.8144
ndi	-11.8146
sym	-11.8146
Cap	-11.8147
▁informal	-11.8148
▁Biden	-11.8149
▁Tournament	-11.815
▁flowing	-11.8151
align	-11.8152
▁Patient	-11.8152
workers	-11.8154
▁methodology	-11.8155
DB	-11.8157
easing	-11.8157
▁Recreation	-11.8159
ORE	-11.8159
ject	-11.8159
▁protests	-11.8159
▁useless	-11.816
▁teenage	-11.816
WI	-11.816
▁Cinema	-11.816
▁Hebrew	-11.8161
▁Fee	-11.8164
▁dick	-11.8165
gene	-11.8166
▁unto	-11.8166
Open	-11.8168
fused	-11.8168
▁pupils	-11.8169
spire	-11.817
agh	-11.8172
▁racism	-11.8173
▁queries	-11.8174
▁Scar	-11.8175
▁stitch	-11.8178
▁doll	-11.8178
bay	-11.8179
tex	-11.8179
ease	-11.818
▁Created	-11.8182
▁participant	-11.8182
▁diving	-11.8184
▁inning	-11.8185
founder	-11.8188
▁feather	-11.8188
▁exotic	-11.8189
▁Av	-11.8189
layer	-11.8189
▁iPod	-11.8189
▁Shah	-11.819
▁outlined	-11.8193
March	-11.8193
xa	-11.8193
▁bun	-11.8195
mph	-11.8195
▁Melissa	-11.8196
▁Waste	-11.8197
flower	-11.8199
▁Earl	-11.8201
▁lb	-11.8202
▁eBay	-11.8204
cz	-11.8204
▁Shot	-11.8204
High	-11.8206
quin	-11.8207
▁practitioners	-11.8207
▁invoice	-11.8207
▁diesel	-11.8207
▁Drama	-11.8208
umb	-11.8208
▁Champion	-11.8211
▁deer	-11.8213
▁Sharp	-11.8215
▁formerly	-11.8215
▁eighth	-11.8218
▁DB	-11.8218
▁ambitious	-11.8218
▁violations	-11.8218
▁rookie	-11.8218
▁Laboratory	-11.8218
▁intersection	-11.8221
▁mapping	-11.8222
Sh	-11.8222
db	-11.8224
▁dense	-11.8225
▁webinar	-11.8226
▁Complex	-11.8226
▁disappeared	-11.8227
▁posters	-11.8228
▁WP	-11.8228
Over	-11.8228
ril	-11.823
▁Fear	-11.8231
▁android	-11.8232
▁decoration	-11.8232
▁nominated	-11.8233
olic	-11.8233
▁retailer	-11.8234
▁bloom	-11.8235
▁MLS	-11.8235
sale	-11.8236
▁Accounting	-11.8238
▁bush	-11.8239
▁customize	-11.824
▁Ji	-11.8241
▁swallow	-11.8241
▁topped	-11.8243
▁switched	-11.8245
▁planting	-11.8247
▁Lamb	-11.8247
▁zoom	-11.8248
▁bored	-11.8248
▁scar	-11.8249
▁grandfather	-11.8249
▁Into	-11.825
▁interpret	-11.8253
GH	-11.8255
▁strips	-11.8255
▁elder	-11.8257
▁surveys	-11.826
▁pale	-11.8263
▁licensing	-11.8264
▁Vas	-11.8269
▁Merc	-11.8269
▁midst	-11.8269
▁Bone	-11.827
RB	-11.8271
bach	-11.8271
▁hunger	-11.8271
▁Doc	-11.8271
uel	-11.8273
filled	-11.8276
▁Scientific	-11.8279
▁updating	-11.8279
▁WITH	-11.8279
▁tr	-11.828
▁lodge	-11.828
▁dismissed	-11.8281
▁Ways	-11.8281
Su	-11.8282
▁refugees	-11.8283
[...]
